[PAD]
[UNK]
[CLS]
[SEP]
[MASK]
<S>
<T>
A
B
C
D
E
F
G
H
I
J
K
L
M
N
O
P
Q
R
S
T
U
V
W
X
a
b
c
d
e
f
g
h
i
j
k
l
m
n
o
p
q
r
s
t
u
v
w
x
y
z
##m
##n
##I
##y
##f
##S
##a
##F
##G
##R
##o
##V
##P
##Q
##E
##z
##r
##K
##N
##b
##H
##k
##M
##t
##e
##h
##d
##T
##p
##J
##x
##D
##W
##c
##A
##U
##X
##s
##u
##w
##O
##j
##l
##L
##g
##q
##v
##i
##C
##B
##mm
##mmmm
##MM
##ee
##EE
##yy
##bb
##nn
##TT
##uu
##aa
##tt
##ss
##AA
##VV
##SS
##QQ
##zz
##OO
##pp
##HH
##BB
##jj
##KK
##ll
##rr
##mmmmmmmm
##eeee
##JJ
##II
##MMMM
##LL
##ww
##cc
##GG
##hh
##CC
##WW
##RR
##EEEE
##qq
##dd
##ff
##kk
##gg
##DD
##ii
##PP
##oo
##UU
##NN
##tttt
##TTTT
##aaaa
##xx
##vv
##uuuu
##bbbb
##yyyy
##AAAA
##XX
##nnnn
##OOOO
##zzzz
##BBBB
##HHHH
##eeeeeeee
##ssss
##JJJJ
##mmmmmmmmmmmmmmmm
##KKKK
##VVV
##cccc
##GGGG
##SSSS
##hhhh
##qqqq
##dddd
##WWWW
##LLL
##llll
##CCCC
##RRRR
##MMMMMMMM
##QQQQ
##rrrr
##wwww
##Qo
##jjjj
##ppp
##EEEEEEEE
##iiii
##yyy
##IIII
##sss
##XXXX
##tttttttt
##NNNN
##ggg
##UUUU
##kkk
##fff
##nnn
##vvvv
##jjj
##DDDD
##VVVV
##bbb
##mmm
##pppp
##TTTTTTTT
##aaaaaaaa
##nF
##III
##SSS
##PPP
##rrr
##obbbb
##LLLssss
##QQQ
##xxx
##uuu
##uuuuuuuu
##lll
##AAAAAAAA
##LLssss
##MMM
##PPPP
##TTT
##DDD
##AAA
##yyyyy
##zzz
##EEE
##KKK
##aaa
##www
##Qoo
##oVVV
##OOO
##HHHHHH
##SSSSS
##BBBBBBBB
##oVV
##eeeeeeeeeeeeeeee
##mmmmmmmmmmmm
##ehhhh
##nnnnn
##gggg
##LLLsss
##OOOOOOOO
##pppjjjj
##bbbbb
##ttt
##mn
##dddddddd
##cccccccc
##mmmmmmmmmmmmmmmmmmmmmmmmmmmmmmmm
##lllll
##zzzzzzzz
##GGGGGG
##ooVV
##HHHHH
##BBB
##KKKKKKKK
##eeeeee
##JJJ
##JJJJJJJJ
##qqqqqqqq
##WWWWWW
##wwwww
##yyyyyy
##RRR
##QQQo
##CCCCCC
##xF
##UUU
##uuuuu
##NNN
##LLsss
##iii
##kkkk
##QQo
##xxxx
##hhh
##ccc
##ooVVV
##nnnnnn
##ffff
##MMMMMMMMMMMM
##ppjj
##oobbbb
##mmn
##gF
##rrrrr
##vvv
##ppjjjj
##EEEEE
##CCCCC
##pppjjj
##zzzzz
##TTTTT
##uuuuuu
##AAAAA
##EEEEEE
##ppjjj
##ddd
##ooV
##qqq
##OOOOO
##aaaaa
##KKNNNN
##mmmn
##ooo
##UUUUU
##WWWWW
##EEEEEEE
##GGGGG
##HHH
##iiiii
##tttttttttttt
##SSSSSS
##RRRRR
##ppj
##IIIII
##mmmmm
##XXXXXX
##vvvvv
##TTTTTT
##oVVVV
##LLLss
##AAAAAA
##nnnnnnnn
##yyyyyyy
##aaaaaa
##DDDDD
##BBBBB
##pppjj
##MMMMM
##zzzzzz
##bbbbbb
##CCC
##obbb
##uuuuuuu
##LLsssss
##MMMMMM
##llllll
##KKKNNNN
##LLLsssss
##HHHHHHH
##JJJJJ
##MMMMMMMMM
##OOOOOO
##MMMMMMM
##WWW
##QF
##mmmmmm
##TTTTTTT
##sssss
##KKKKK
##PPPPP
##xxVV
##hhhhh
##obbbbb
##aaaaaaa
##AAAAAAA
##mnn
##yyyyyyyy
##RRRRRR
##MMMMMMMMMM
##LLss
##ppppjjjj
##wwwwww
##BBBBBB
##EEEEEEEEE
##nnnnnnn
##GGGGGGG
##eeeeeeeeee
##HHHHHHHH
##oF
##mmmmmmm
##VVVy
##GGG
##rrrrrr
##ccccc
##ooVVVV
##WWWWWWW
##vvvvvv
##fF
##nFn
##JJJJJJ
##XXXXXXXX
##zzzzzzz
##pkk
##oobbb
##iiiiii
##MMMMMMMMMMM
##oV
##UUUUUU
##OOOOOOO
##obb
##hhhhhh
##GGGGGGGG
##VVVyy
##IF
##cccccc
##or
##oor
##CCCCCCC
##EEEEEEEEEE
##gwwww
##ddddd
##LLLLsss
##QQQQQ
##BBBBBBB
##oobb
##bbbbbbb
##orr
##mmmmmmmmmmmmmmmmmmmmmmmm
##mmnn
##fPPP
##RRRRRRRR
##uggg
##eeeeeeeeeeee
##Fn
##QoVV
##mmmmmmmmmmmmmmmmmmmmmmmmmmmm
##TTTTTTTTT
##Aff
##LLLLssss
##mnnn
##ttttttttt
##ttttt
##xVV
##QQQQQQ
##aaaaaaaaa
##pppjjjjj
##qqqqq
##obbbbbb
##eee
##ehhhhh
##pk
##mnnnn
##tttttt
##uuggg
##qqqqqq
##ccccccc
##KNNNN
##JJJJJJJ
##bbbbbbbb
##ttttttt
##RRRRRRR
##pppj
##dddddd
##AAff
##ppppjjj
##ehhhhhh
##tttttttttt
##pj
##EEEEEEEEEEE
##FS
##KKKKNNNN
##mmmnn
##qqqqqqq
##uuuggg
##KKKKKK
##yyDDDD
##XXXXXXX
##VVVyyy
##kkkQQQQ
##gwww
##LAAAAAAAA
##ugg
##mmmmn
##xxV
##IIIIII
##pjj
##WWWWWWWW
##oobbbbb
##TTTTTTTTTT
##eeeeeeeeeeeeee
##AAAff
##yyyyff
##oorr
##uuuuggg
##kkkQQ
##LLLLss
##mmnF
##yDDDD
##aaaaaaaaaa
##rF
##kPPP
##ttttttttttt
##yyyff
##fPPPP
##yyyyyff
##orrr
##et
##Lssss
##mmnnn
##fPP
##hhhhhhh
##yyyyfff
##mnF
##QoVVVV
##XXXXX
##OF
##oob
##ddddddd
##MMMMMMMMMMMMM
##yyyfff
##LLLs
##yyyDDDD
##xxxxx
##uuuuuggg
##iiiiiii
##HHHHHk
##uugg
##mmmmmn
##yyff
##mmnnnn
##rrrrrrr
##EEEEEEEEEEEE
##QoVVV
##KKKKKKK
##lllllll
##ppjjjjj
##xxVVV
##AAAAff
##Fy
##yyyyyfff
##KKNNNNN
##wF
##HHHHHkk
##LLLL
##QQQQQQQQ
##HHHHHHk
##CCCCCCCC
##gww
##TTTTTTTTTTT
##yyfff
##FV
##QooVV
##yyDDD
##QQoVVV
##ppppjj
##Fl
##ppppp
##UUUUUUU
##uuugg
##BBBBBBBBB
##aaaaaaaaaaa
##mmmnnn
##obbbbbbb
##zzzzzzzzz
##ehhhhhhh
##mmmmmmn
##fk
##qqqqqqqqq
##uuuuuuggg
##Afff
##pjjj
##eeeee
##pppppjjjj
##vvvvvvv
##yyyDDD
##mmmnF
##zo
##OOOOOOOOO
##kkSSSS
##fP
##Fnn
##GGGGGGGGG
##mmmnnnn
##oobbbbbb
##AAAAAff
##Fj
##yDDD
##wwwwwww
##ob
##uuuugg
##QQoVV
##ooF
##yyyyDDDD
##ttttttttttttt
##Lsss
##QLLLsss
##ugggg
##Qobbbb
##mnnnnn
##yyyyyyff
##IIssss
##MMMMMMMMMMMMMM
##kkkQQQ
##kPP
##yff
##ccccccccc
##FSS
##xVVV
##EEEEEEEEEEEEE
##kkSSSSS
##mmmmmmmn
##kkkQ
##QQoVVVV
##AAAAAAff
##oL
##gwwwww
##uuuuugg
##KKKNNNNN
##mmmmnn
##jjjjj
##uugggg
##QLLLssss
##KKNNN
##HHHHkk
##QQLLLssss
##SSSSSSS
##gw
##JJJJJJJJJ
##TTTTTTTTTTTT
##hhhhhhhh
##HHHHk
##xxxVV
##pssss
##aaaaaaaaaaaa
##ppk
##eh
##AAAAAAAff
##yyyyDDD
##Fr
##uuuuuuuggg
##BBBBBBBBBB
##pPPP
##QQF
##oVVVVV
##KKKKKNNNN
##AAfff
##HHHHHHHk
##pppppp
##HHHHHHkk
##uuugggg
##QQLLLsss
##xxVVVV
##tttttttttttttt
##OOOOOOOOOO
##uuuuuugg
##KKKKKKKKK
##SF
##nFnn
##xxxV
##ddddddddd
##yfff
##yyyyyyyyy
##KKNNNNNN
##XXX
##yyyyyyfff
##qqqqqqqqqq
##ppppjjjjj
##APPPP
##psss
##pppppjjj
##iiiiiiii
##Ik
##Ff
##RRRRRRRRR
##oorrr
##ggP
##IIIIIII
##Fk
##Fb
##KKKNNNNNN
##xVVVV
##LLAAAAAAAA
##zzzzzzzzzz
##eeeeeeeeeeeeeeeeee
##uuuuuuuuu
##Qorr
##Qobbb
##KNNN
##obbbbbbbb
##mmmmmnn
##Fyy
##pPPPP
##orrrr
##mmmmmmmmmmmmmmmmmmmmmmmmmmmmmmmmmmmmmmmmmmmmmmmm
##Fjj
##mmnnnnn
##LLLLsssss
##ppkk
##XXXXXXXXX
##mnnnnnn
##FQ
##AAAfff
##uuuugggg
##lQQ
##QQQQQQQ
##QooVVV
##Fp
##FP
##kkkSSSS
##EEEEEEEEEEEEEE
##xxr
##mmmmmmmmn
##WWWWWWWWW
##oVVVy
##HHHHHHHHH
##oLLLssss
##cccccccccc
##LLLLs
##Qor
##eeeeeee
##MMMMMMMMMMMMMMM
##ffP
##QooV
##ppsss
##Qobbbbb
##oooV
##IIIIy
##IIIy
##rrrrrrrr
##oooVV
##uuuuuuugg
##Fll
##Af
##gPP
##aaaaaaaaaaaaa
##oobbbbbbb
##xxrr
##TTTTTTTTTTTTT
##Mn
##FK
##oLLssss
##ehhhhhhhh
##QQQoVV
##QQQLLLssss
##eeeeeeeeeeeeeeeeeeeeeeeeeeeeeeee
##ttttttttttttttt
##kPPPP
##FF
##SSSSa
##uuuuuuuuggg
##kkkSSS
##oVVVyy
##Ib
##SSSSaa
##AAAAfff
##JJJJJJJJJJ
##kkkkQQQQ
##mmmmnnn
##QooVVVV
##BBBBBBBBBBB
##KKKKKKKKKK
##mmmmmmmmmn
##VVy
##dddddddddd
##HHHk
##mmmmmmnn
##pppjjjjjj
##IIIssss
##SSzz
##Ft
##Szz
##xxF
##nnnnnnnnn
##QQQoVVVV
##QQoo
##Fnnn
##QoV
##pkkk
##GGGGGGGGGG
##gggP
##mmmmmmmmmmmmmmmmmmmmmmmmmmmmmmmmmmmmmmmmmmmmmmmmmmmmmmmmmmmm
##AAAAAfff
##ppppppjjjj
##AAf
##AAAf
##UUUUUUUU
##bbbbbkk
##AAAAAAfff
##lQ
##HHHkk
##Fa
##tn
##VVyy
##mmmmmmmmmmmmmmmmmmmmmmmmmmmmmmmmmmmmmmmm
##FSSS
##yyyyyyyff
##SSzzz
##Lsssss
##SSSSaaa
##mmmnnnnn
##OOOOOOOOOOO
##gPPP
##bbbbkk
##TToo
##ooVVVVV
##Sz
##Fkk
##Ux
##Too
##Ikk
##uuuuugggg
##TF
##Fs
##yyyyyDDDD
##KSSS
##KNNNNN
##EEEEEEEEEEEEEEEE
##bbbkk
##Qorrr
##AAAAAAAfff
##tttttttttttttttt
##qqqqqqqqqqq
##xxLLssss
##QQobbbb
##IIsssss
##KKKNNN
##OOOOvvvv
##AAAAf
##Fw
##SSz
##ggw
##AAAAAAAAff
##MMMMn
##uuuuuuuuuu
##SSSSSa
##ppppj
##oHHHH
##LLs
nn
##Szzz
##Fff
##Fbb
##FE
##oLLLsss
##mmmmmmmnn
##SSSSSaa
##MMMMMn
##GGGGGGx
##eeeeeeeeeeeeeeeeeeee
##aaaaaaaaaaaaaaaa
##ppF
##mmmmnnnn
##OOOvvvv
##eeeeeeeee
##CCCCCCCCC
##xxLLsss
##mmmmmnnn
##MMn
##rV
##QQQLLLsss
##yyyyyyyyyy
##mmnnnnnn
##MMMn
##PPPPPP
##zzzzzzzzzzz
##mnnnnnnnn
##Fyyy
##IIIyy
##mmmmmmmmmmn
##SSSSaaaa
##MMMMMMMMMMMMMMMM
##xxrrr
##Fss
##IIIIIIII
##mmmmmmmmmmmmmmmmmmmmmmmmmmmmmmmmmmmmmmmmmmmm
##ccccccccccc
##TTToo
##MMMMMMn
##yyyyyDDD
##QQQoVVV
##FI
##SSzzzz
##zoo
##pppppjj
##SSSSSaaa
##ooVVVy
##TTTTTTTTTTTTTT
##bbbkkk
##dddddddddddddddd
##uuuuuuuugg
##EEEEEEEEEEEEEEE
##KKKKKKKKKKK
##ett
##eet
##nFnnn
##RRRRRRRRRR
##NNNNN
##ugF
##uuwwwww
##ppss
##APPP
##Fz
##SSSzzz
##BBBBBBBBBBBB
##OOOOOvvvv
##OOOOvvv
##kkkkQQ
##Qobbbbbb
##uuwwww
##mnnnnnnn
##xxxxxx
##pF
##yyyyyyyfff
##yyyyffff
##GGGGGx
##MMMMMMMn
##lllllT
##uwwwww
##aaaaaaaaaaaaaa
##oVVVyyy
##JJJJJJJJJJJ
##lllllTT
##VVyyy
##XXXXXXXXXX
##HHkk
##llllTT
##bbbbbbbbb
##SSSzz
##Faa
##uwwww
##GGGGGGGx
##AAAAAf
##eeeeeeeeeeeeeeeeeeeeee
##oVVVVy
##QQQF
##HHHHHHHHk
##SSSzzzz
##uuuuuuuuuggg
##mmmmmmmmmmmn
##oLLsssss
##FT
##Qobb
##KKKKNNNNN
##SSSSSaaaa
##JJJJx
##SSSaa
##obbbbII
##SSSSaaaaa
##pppppjjjjj
##Frr
##AAAAAAAAAff
##obbbII
##ppjk
##yyDDDDD
##yyyffff
##HHk
##KKKNNNNNNN
##gj
##llllT
##OOvvvv
##QQorr
##LLF
##DDDDDD
##obbbbIII
##bbbbIII
##bbbIII
##uuuuuugggg
##pPP
##Flll
##Fjjj
##hF
##mmmmmmnnn
##Szzzz
##ppjP
##uuuwwww
##ggww
##Fzz
##mmmmmnnnn
##SSSaaa
##ppppppp
##uuuwwwww
##IIIIyy
##SSSa
##bbbII
##xxrrrr
##KKNN
##llllTTT
##TTTToo
##OOOvvv
##bbbbkkk
##LV
##FEE
##uugF
##pjjjj
##kkP
##FH
##obbbkkk
##ddddddddddd
##llQQ
##ppssss
##mmmnnnnnn
##VVVyyyy
##PPPPQ
##HHHHHHHkk
##FW
##yDDDDD
##LLV
##ooVVVyy
##OOOOvvvvv
##AAAAAAAAA
##mmmmnF
##uuuuuuuuugg
##MMMMMMMMn
##TTTTTTTTTTTTTTTT
##SSSz
##KKKKNNNNNN
##xxxr
##uuugF
##JJJx
##FQQ
##bbbbII
##mmmmmmmmmm
##LLLssssss
##bbbbbIII
##oHHHHH
##kF
##SSzzzzz
##SSSaaaa
##mmmmmmmmmmmmn
##LVV
##Fi
##FVV
##lllllTTT
##gggQQQQ
##bbbbbbkk
##eeeeeeeeeee
##kkkkQ
##kkkkQQQ
##QQor
##ggwww
##SSSSSaaaaa
##xFB
##QLLLss
##DDDi
##bbkk
##DDDDi
##QQooVV
##SSSSaaaaaa
##LLssssss
##pkP
##fK
##Fnnnn
##KKKKKKKKKKKK
##ppppjjjjjj
##mh
tt
##UUx
##SSSzzzzz
##gP
##mnFn
##Lss
##obbbbkk
##JJJJJx
##obbbkk
##gggQQ
##OOOOOvvvvv
##DDDDiiii
##ooHHHH
##pppss
##OOOOOvvv
##obbbbbIII
##ppjjjjjj
##SSSSaaaaaaaa
##obbbIII
##ppPP
##mmmmmnF
##QQQQQoo
##OOOOOOOOOOOO
##OOOvvvvv
##cccccccccccc
##mmmmmmmmnn
##rrrrrff
##llQ
##ooVkkk
##pss
##MMMMMMMMMn
##uuujjj
##yyyyyffff
##BBBBBx
##uuuujjj
##ccccccxx
##bbkkk
##BBBBx
##KKNNNNNNN
##FWW
##oHHHHHH
##qqqqqqqqqqqq
##QQQQQo
##cccccxx
##Jx
##FO
##pjP
##bbbbIIII
##AAAAAAf
##mmmmmmmmmmmmmn
##mmmmmmmnnn
##VVVVy
##ttttttttttttttttt
##iiiiiS
##FN
##eeeeeeeeeeeeeeeeeeeeeeee
##hhhhhhhhh
##PPPQ
##llllTTTT
##mmmmmmnnnn
##Fyyyy
##ppppppjjj
##bbbbbIIII
##FEEE
##kP
##rHHHH
##DDDiiii
##hhhnn
##Fww
##VVVVV
##obbbbbII
##JJx
##FR
##xxxVVV
##BBBx
##AAAAAAAAfff
##OOOOOOvvvv
##mmmmmmmmmmm
##yyyDDDDD
##nnnnnnnnnnn
##zzzzzzzzzzzz
##TTTTTTTTTTTTTTT
##ggPP
##BBBBBxx
##FKK
##yr
##yn
##me
##mmmmmmnF
##Faaa
##SSSaaaaa
##SSSSSaaaaaa
##ccx
##FDD
##bbbIIII
##QQoV
##BBBBBBBBBBBBBBBB
##lSSSS
##gggQ
##oVVVyyyy
##bbbbbII
##LLLF
##OOvvvvv
##DDDDiii
##Ftt
##APPPPP
##cccx
##rrrrff
##xFx
##uuuugF
##cx
##DDDDii
##llllTTTTT
##kvv
##JJJJxx
##uuuuwwww
##obbkkk
##Szzzzz
##Fzzz
##AAPPPP
##mmmmmmmmmmmmmmn
##SSSSaaaaaaa
##SSaaa
##uuuuwwwww
##SSSSSaaaaaaaa
##Mnn
##lQQQ
##oLLLsssss
##hhhhhnnn
##Hkk
##pff
##AAAAAAAAAAff
##mmmmmmmmmmmmmmmmmmmmmmmmmmmmmmmmmmmmmmmmmmmmmmmmmmmmmmmmmmmmmmnF
##FD
##JJJJJxx
##bkk
##SSaaaa
##Saaaaaaaa
##KKKNN
##yyffff
##cccccccxx
##ugwwww
##VVyyyy
##mmmmnnnnn
##mmmmmmmnF
##Or
##bbIII
##FII
##mmmmmmmmmnn
##dddddddddddd
##oVVVVyy
##FTT
##ooVVVyyy
##uuuuuuuuuuggg
##Qrrr
##FEEEE
##FWWW
##fPPPPP
##Saaaa
##orrrrr
##oHHHHHHHH
##uuuuuuugggg
##SSaa
##obbbbkkk
##oLL
##GGGGGGGxx
##mmmmmmmnnnn
##DDDii
##BBBBBxxx
##DDDiii
##lllllTTTT
##QQorrr
##KKKKNNN
##OOvvv
##FNN
##bbbbbkkk
##LLLsssggg
##WWWWWWWWWW
##ccccx
##yA
##SSSSSSa
##oobbbII
##eeeeeeeeeeeee
##uuuuujjj
##uuuuuuuuuugg
##FU
##mt
##QQQoo
##TTTTToo
##QQQQLLLssss
##llllTTTTTTTT
##FPP
##SSaaaaaaaa
##cccccx
##QoVVVVV
##SSSSz
##SSSaaaaaaaa
##ppPPP
##llllTTTTTT
##QR
##SSaaaaa
##bbII
##ehhhhhhhhh
##Saaa
##OOOOOOvvvvv
##yyyyyyyyff
##BJ
##uuwwwwww
##ooor
##BBBBBBxx
##llllllT
##mmnnnnnnn
##ttn
##Ovvvv
##oobbbIII
##Ikkk
##SSSaaaaaa
##mmnFn
##BBBBxx
##GGGGGGxx
##Fjjjj
##QoVVVy
##MMMMMMMMMMn
##mmmmmmmmmmmmmmmn
##QoVVVyy
##eeeeeeehhhhh
##SSzzzzzz
##Saaaaa
##oLLLss
##BBx
##AAAAAAAAAA
##KNN
##xxxrr
##eeeeeehhhhhh
##uwwwwww
##QQLLLss
##obbbbbIIII
##Qorrrr
##IIIIIy
##ppps
##SSSSSaaaaaaa
##QQooVVV
##obbbbIIII
##eeeeehhhhh
##Fii
##lQQQQ
ttt
##bbbbbbIII
##SSSSzz
##kvvv
##KKF
##FC
##pjk
##SSSzzzzzz
##AAAAAAAf
##PPPPl
nnn
##fFf
##SSSSSSaa
##oHHHHHHH
##xFJ
##eeeeeeeeeeeeeeeeeeeeeeeeee
##BBBBBBx
##JJJJJJx
##bbbbbbbkk
##llllTTTTTTT
##HHHHHII
##Qoor
##GGGGx
##MMMMMMMMMMMMMMMMM
##RRRRRRRRRRR
##MR
##AAPPP
##eeeeehhhhhh
##Faaaa
##SSa
##FA
##Qrr
##bkkk
##ps
##Orr
##psssss
##KKKKKKKKKKKKK
##HHHII
##Issss
##pppppj
##eeeeeeehhhhhh
##OOOOOvvvvvv
##OOF
##hhhn
##uuuwwwwww
##obbbbbkk
##HHHHHHHHHH
##mmnnnnnnnn
##hhhhnn
##bbbbbbIIII
##mmmmmmmmmmnn
##JJJJJJJJJJJJJJJJ
##Qx
##hhhnnn
##ooVVVVy
##ccccxx
##lllTT
##llllllTT
##QQLLLsssss
##FEEEEE
##oobbbbIII
##OOOOvvvvvv
##oobbbbbbbb
##QLLLLsss
##GGGGGGGGGGG
##XXXXXXXXXXX
##uuuuuuuuuuuuuuuu
##HHHHHIII
##oLLsss
##ggggg
##mmmmmmmmmmmmmmmmn
##oLAAAAAAAA
##cccccxxx
##KKKKNNNNNNN
##SSaaaaaa
##ccccccxxx
##pf
##yyyyyyyyyyy
##SSSSzzzz
##uuuuugF
##nnnnnnnnnn
##hhhhnnn
##oobbbbII
##JJJJJJxx
##VVVVyy
##uuujjjj
##AAAAAAAAAfff
##Saa
##oVVkkk
##pkj
##Vyy
##SSSSzzz
##wwwwppjj
##oVkkk
##tttttttttttttttttt
##pps
##Saaaaaa
##BBBBBBxxx
##pppsss
##SSSSSSaaa
##eeet
##Oz
##pDD
##OOOOOOOOOOOOO
##llllcccccccc
##QLLLsssss
##lllTTT
##uujjj
##hhhhhnnnn
##Ffff
##OOOvvvvvv
##hhhhhnn
##lllllTTTTT
##IIy
##mmmmmnnnnn
##SSSaaaaaaa
##cxx
##EEEEEEEEEEEEEEEEE
##ccccccx
##ppppppjjjjj
##uugwwww
##GGGGGGGGx
##OK
##iiiiiiiii
##lT
##yyyf
##bbIIII
##rrrrrrrrr
##lTT
##Uxx
##obbII
##AfPPP
##FTTT
##QLL
##eeeeeeeehhhhhh
##lS
##gFs
##ooL
##OOOOOOvvv
##OOOF
##eeeeehhhh
##uuwww
##eeeeeeehhhh
##lllT
##mmmmmmmmnnn
##Fq
##kkPP
##SSSSzzzzz
##ujjjj
##KNNNNNN
##FG
##cccccccxxx
##uujjjj
##yf
##yyyyf
##JJJxx
##Ovvvvv
##mmmmmmmmmmmmmmmmmn
##OOOOOOvvvvvv
##Hk
##LLLssssggg
##PPPPll
##uuuuuwwwww
##QoF
##lllllTTTTTTTT
##FWWWW
##lllTTTT
##lllllTTTTTT
##Fzzzz
##Qoorr
##SSSSSSaaaa
##QQobbb
##Szzzzzz
##HHHHHHIII
##uuuuuujjj
##KKKN
##KKN
##gjj
##mmmmmmmmmmmnn
##ddddddddddddd
##yyyyyyyyfff
##eeeehhhhhh
##bIII
##FUU
##QQQobbbb
##QQQLLLsssss
##JJJJJJJJJJJJ
##My
##Vy
##uuuwww
##cccxx
##Qrrrr
##yyf
##eeeeeeeeeeeeeee
##OOOOOOOvvvv
##yyyyyyffff
##Frrr
##mM
##oobbIII
##yyyyDDDDD
##mmmnFn
##BBBBBBBxx
##DDDDiiiii
##oobbkkk
##OOvvvvvv
##bbbbbbII
##FEEEEEE
##drrr
##mmmmmmmmm
##Fyyyyy
##MMnn
##QQLLLLsss
##LVVV
##ettt
##mmmmmmmmmmmmmmmmmmmmmmmmmmmmmmmmmmmmmmmmmmmmmmmmmmmmmmmm
##eeeeeeeeehhhhh
##SSSSSz
##Saaaaaaa
##SSaaaaaaa
##obbbbbbIII
##pkkkQQQQ
##Iy
##XXXXXXII
##KWWWWWWW
##Fsss
##oobbbkk
##oobbII
##JJJJJxxx
##zzzzzzzzzzzzz
##mmmnnnnnnn
##LLLssggg
##QoVVVyyy
##UUUUUUUUU
##MMMMMMMMMMMn
##HHHIII
##llTT
##oVVkk
##lTTT
##qqqqqqqqqqqqq
##BBBxx
##pppppjjjjjj
##Fttt
##pppjjjjjjj
##mmmmmmmmmmmmmmmmmmn
##Vyyy
##MMMMMnn
##AAAAAAAAAAAff
##oobbbkkk
##FGG
##QLLLLssss
##llllllTTT
##uuuujjjj
##Bx
##uwww
##ooVkk
##TTTTTToo
##MMMMnn
##AAAF
##RRRRRCCCCC
##lSSS
##ffPP
##BBBBxxx
##SSSSaaaaaaaaa
##eeeeeeeeeeeeeeeeeeeeeeeeeeee
##lllTTTTT
##SSSSSSaaaaa
##obbIII
##MMMnn
##ccxx
##az
##OOr
##obbbIIII
##uuuuuwwww
##mmmmnnnnnn
##bII
##DDDiiiii
##HHHHHHII
##FM
##ooVVVyyyy
##XXXXXII
##Affff
##oorrrr
##eeeeeeeeehhhhhh
##OOOOOOOvvvvv
##mmmmmmnnnnn
##FJ
##uuuuwwwwww
##Qobbbbbbb
##RRRRCCCC
##RRRRRCCCC
##AAAAww
##ookkk
##llT
##Faaaaa
##Isssss
##lllTTTTTTTT
##FNNN
##lSSSSS
##RRRRCCCCC
tttt
##Fnnnnn
##DDDDDi
##GGGGGxx
##mmmmmmmmmmmmnn
##ccccccccxx
##uuuujj
##HHHHHf
##ppjjjQ
##rf
##ggwwww
##GooVV
##IH
##MMMMMMnn
##nFnnnn
##BBBBBBBxxx
##bbbbbbkkk
##lllllTTTTTTT
##mmmmmmmmmnnn
##JJJJJJxxx
##drr
##xFBB
##SQ
##mee
##HHHHII
##JJJJUUUU
##lSS
##AAF
##oHHHHHkk
##DDDU
##HHHHHHf
##mmmnnnnnnnn
##bIIII
##lllQ
##KKKKKKKKKKKKKK
##lllQQ
##mmmmmmmmmmmmmmmmmmmn
##jF
##KKKKNN
##oVVVyyyyy
##KKKKKNNNNN
##uuuuuuuugggg
##Orrr
##uuuuujj
##xxxxxxx
##gggw
##eeehhhhh
##oobbbbIIII
##ppppppjj
##HHHHIII
##BBBBBBBBBBBBB
##mmmmmmmmmnF
##BBBBBBBx
##ujjj
##lQoo
##MMMMMMMnn
##obbbbbbII
##hn
##lllTTTTTT
##XXXXXXXII
##oVVVVyyy
##wwwwwppjj
##rrrrrrff
##ILssss
##uuuuuuuuuuuggg
##KF
##uuuuuuuuuuugg
##KWWWWWW
##llQoo
##yyyyyf
##uuugwwww
##Sa
##eeeeeeeeehhhh
##ooLLssss
##en
##gggQQQ
##fFff
##JJJJJUUUU
##Fiii
##cxxx
##pD
##lllTTTTTTT
##DDDUU
##ppP
##RCCCC
##llTTT
##oobbbbbIII
##wj
##SSzzzzzzz
##pppps
##obbbbbbIIII
mmmmmmmmmmmmmmmmm
##ooVVyy
##oVVVVVV
##JJxx
##llllcccc
##uuuuuugF
##ppjjjQQ
##bbbbbk
##OOOOF
##hhhhn
##AAAAAAAAAAA
##SSSSSSaaaaaaaa
##ooVkkkk
##rff
##JJJJJJJxx
##FCC
##oobbbIIII
##Kz
##QQQQLLLsss
##DDDDDiiii
##llllTTTTTTTTT
##FTTTT
##cccccccx
##lTTTT
##DDDDDiii
##hhn
##kkkQQQo
##wg
##DDDssss
##SSSSSSaaaaaa
##obbkk
##ooVVVVyy
##GGGGGGGGxx
##pg
##SSSSzzzzzz
##hhhhhn
##OOOOvv
##DDDDDii
##yyn
##mmmmmmmmnnnn
##rrrrrf
##oobbbbbII
##pppppppjjjj
##RCCCCC
##mmmmmmmmmmmmmnn
##FoVV
##pPPPPP
##KKWWWWWWW
##uuujj
##obbbbI
##lllcccc
##QQobbbbb
##Qr
##wwwwy
##FGGG
##eeehhhh
##QQLLLLssss
##llllccc
##FNNNN
##RRRRRRCCCCC
##llTTTT
##AAAAAww
##HHF
##uuuuwww
##QQooV
##wwwy
##QJ
##JJJUUUU
##mmmmmmmmmnnnn
##tttn
##pppF
##mmmmmmmmmmnF
##JJJJJUUUUU
##eeehhhhhh
##JJJJJJJx
##rrF
##MMMMMMMMnn
##xxxxV
##eeeeeeeeeehhhhhh
##JJJJUUUUU
##llS
##lllccc
##ppkP
##hhhhnnnn
##lllQoo
##KKWWWWWW
##JJJJxxx
##bbbbbIIIII
##mmmmmmmnnnnn
##KKKKKNNNNNN
##OOOOOOOOOOOOOO
##pkPP
##AAAAAAAAAAfff
##RRRRRRCCCC
##QQQooVV
##SSSzzzzzzz
##AAAAffff
##dddddddddddddd
##FEEEEEEE
##mmmmmnnnnnn
##FRR
##eett
##EEEEEEEEEEEEEEEEEE
##QL
##mmmmmmmmmmnnn
##ttttttttttttttttttt
##KKKKKNNN
##xxVVyy
##bbbbk
##QoVVVVy
##drrrr
##bbbbbbbIIII
##ssssss
##KKKNNNNNNNN
##Ovvv
##mmmmmmmmmmmmmmmmmmmmn
##SSF
##QQQLLLLsss
##SSSSSaaaaaaaaa
##GooVVV
##QQrr
##WE
##eeeeeehhhhhhh
##AAAAF
##HHII
##XXXXII
##SSSaaaaaaaaa
##QQQoV
##QQQLLLss
##obbkkkk
##tnn
##yyyyyyyyyyyy
##Jxx
##oooVVV
##MMMMMMMMMMMMMMMMMM
##uuuuuujj
##mmh
##BBBxF
##nnnnnnnnnnnn
##yffff
##mhh
##HHHHf
##QLLLLss
##kv
##zzzzzOOO
##ookkkk
##QQrrr
##Vyyyy
##HHHHHHHIII
##DDDDU
##OOrr
##AAAAAffff
##OOOOOOOvvvvvv
##QQLL
##Ovvvvvv
##hhhhhhhhhh
##llllccccc
##VVyyyyy
##FCCC
##BBBBBUUUUU
##pppppppp
##bbbbbbbIII
##EWWWW
##KKKKN
##DF
##pfPPP
##SSSSSzz
##zzzzOOO
##VVVyyyyy
##RRRCCCCC
##XXXXXXk
##QQQQQLLLssss
##AAAAAAffff
##RRRCCCC
##Fo
##Saaaaaaaaa
##oobbkk
##Fpjjjj
##llllllTTTT
##HHHHHHHf
##VVVVyyy
##mnmn
##QQooVVVV
##mmmmmmmmmmmnF
##eeeeeeehhhhhhh
##obbbI
##oobbbbkk
##eeeeehhhhhhh
##ehF
##ooHHHHHHHH
##QoL
##Ls
##eeeeeeeeeeeeeeeeeeeeeeeeeeeeee
##HHHHHHHHHk
##eeeeeeeeeeeeeeeeeee
##FIII
##lTTTTT
##cccccccccxx
##ccccccccxxx
##kvvvv
##ooVVyyy
##BBxF
##SSSSaaaaaaaaaa
##uuuuuuujjj
##SSaaaaaaaaa
##nff
##SSSSSSaaaaaaa
##mnFnn
##gPPPP
##mmmmmmmmmmnnnn
##wMMM
##RRRRCCCCCC
##yyDDDDiiii
##BBBBUUUUU
##RRRRRCCCCCC
##JJJJJJJxxx
##BBBxxx
##AAAAAAAAf
##AAffff
##zzzOOO
##QQQQF
##llllcc
##FKKK
##EWWWWW
##CCCCCCCCCC
##XXXXXXIII
##ugwww
##Fqq
##OOOOOvv
##wwr
##bH
##lllcc
##hhnn
##uuuuujjjj
##Faaaaaa
##OOOOOOOOOOOOOOOO
##QQQorr
##rrrrf
##ccccxxx
##zzzzzOO
##oVVyy
##eeeeeeeeeeehhhhh
##KWWWWWWWW
##mmmmmmmmmmmmmmmmmmmmmn
##QoLLLssss
##wwwyy
##Szzzzzzz
##QQQLLLLssss
##bbbI
##DDDsss
##Mnnn
##FEEEEEEEE
##KKKKKKKKKKKKKKKK
##GGGGGGGGGGGG
##ddrr
##rrrff
##oobbbbbIIII
##uuuuuwwwwww
##HHHF
##zzOOO
##AfPPPP
##DDi
##llTTTTT
##XXXXXXI
##Qz
##lllccccc
##XXXXXXXIII
##cccxxx
##mme
##ooLLsssss
##FWWWWW
##KKKKKKNNNN
##yyyDDDDiiii
##HHIII
##oooVVVV
##JJUUUU
##bbbk
##mmmmmmmmmmmmmmnn
##mmmmmmmmnF
##rH
##BBBBBBBBxx
##pkkP
##BBBBxF
##SSzzzzzzzz
##yyDDDDi
##JJJJJJUUUU
##mmmmmmmmmmmnnn
##BBBBBUUUU
##IIIIIyy
##xxVVy
##QE
##ccxxx
##zzzzzzOO
##ooVVkkk
##QQoVVVVV
##cxxxx
##DDDDiiiiii
##Jxxx
##SSSzzzzzzzz
##MMMMMMMMMnn
##zzzzzzOOO
##Qobbbbbbbb
##nFt
##rHHHHHHHH
##VVyyyyyy
##BBBBUUUU
##oHHHHHHkk
##DDDiiiiii
##llTTTTTTTT
##QQobb
##ppppjjjjjjj
##bbbbbI
##eeeeeeeeeeehhhhhh
##EWWWWWW
nnnn
##MMMMMMMMMMMMn
##ooorr
##zoor
##Ftttt
##zOO
##QQQQoVVV
##AAAAAAAffff
##ddrrr
##HHHHHHHII
##eeeeeeeehhhhhhh
##mmmmmmmmmmmmmmmmmmmm
##lQF
##uuuuuuuuuuu
##JJJUUUUU
##XXXXXI
##llSS
##BBBBBBUUUUU
##OOOOOF
##QQLLssss
##ggj
##zzzzzOOOO
##rHHHHH
##FTTTTT
##MMR
##eehhhhhh
ttttt
##wwwppjj
##mnnnnnnnnn
##lTTTTTTTT
##llllTTTTTTTTTT
##LLLssswwww
##UF
##lllllcccccccc
##RRRRRCCC
##nnnCCCCC
##mmmmmmmmmmmmmmmmmmmmmmn
##obbbbbkkk
##zzzzOOOO
##HHHf
##UUUx
##zzOO
##AAAAAAAAAAAAff
##AAAffff
##Faaaaaaaa
##yyyyyffiiii
##yyyyyyf
##uuuuuuugF
##oR
##hhhhhnnnnn
##uuuuuuwwww
##nnnCCCC
##hhhnnnn
##llF
##RRRRCCC
##ynn
##QQQLL
##lllcccccccc
##llTTTTTT
##JJJxF
##ooVVyyyy
##mmmmmmnnnnnn
##obbbkkkk
##cccccccccxxx
##lllllTTTTTTTTT
##JJJJJJUUUUU
##QQoF
##QQQQQQQQQQ
##FCCCC
##yyDDDDiii
##mtt
##QQL
##EWWW
##ppkj
##GF
##OOOOOOOvvv
##KWWWWW
##oVVVVVy
##RRRRRRCCCCCC
##wMMMM
##uuuuuuwwwww
##bbbbbbIIIII
##AAfPPP
##pkkkQQ
##QU
##eeeehhhhhhh
##lF
##lllS
##OOOOOOOOvvvv
##llllc
##llllcccccc
##DDDUUU
##QQQQQQQQQ
##mmmmmmmmmmmnnnn
##zO
##Qoobbbb
##eeeeeeeeeeehhhh
##QQorrrr
##ddddddddddddddd
##QQQor
##BBBBBBBBxxx
##bI
##ooVVkk
##mmmmmmmmmmmmmmmnn
##QQobbbbbb
##Fkkk
##bbbbbbk
##zzzzOO
##QQLLLLss
##uuuugwwww
##AAAAw
##eeeeeeeeeeeeeeeee
##eeeet
##pppjjjQ
##mmt
##ooVVy
##QQQQo
##yyDDDDii
##zzzzzzO
##AAPPPPP
##QQQQLLLsssss
##zzzOO
##zzzOOOO
##QQQQQQQo
##QooVVVVV
##gwwwwww
##yyyyffiiii
##zzzzzzzOO
##RCCCCCC
##BBBBBBBBBBBBBB
##KN
##XXXXXXXXII
##lTTTTTT
##QQQooVVV
##lU
##ppppppj
##obbbbbI
##RRRRRRRCCCCC
##Goo
##zOOO
##JJJJxF
##rHHHHHH
##KKWWWWW
##DDDDsss
##RRCCCC
##bbbbbbbII
##KKKKNNNNNNNN
##ttttn
##llllllTTTTT
##LLLssssuuuuuuuu
##zorr
##oVVVyyyyyy
##KKKF
##wwwwwy
##JJJxxx
##lllTTTTTTTTT
##Saaaaaaaaaa
##SSSST
##RQ
##GGGGGGGxxx
##Ir
##pppjjjQQ
##mmmmmmmmmmmmmmnF
##oVVyyy
##mmmmmmmmmmmmmmmmmmmmmmmn
##qqqqqqqqqqqqqq
##yyyn
##QQQQoVVVV
##Fwww
##ooHHHHH
##uuuuuuujj
##yDDDDi
##wMM
##mmmmmmmmmmmmmmmmmmmmm
##lllcccccc
##SSFS
##KKKKKKKKKKKKKKK
##llllQoo
##llTTTTTTT
##BBBUUUUU
##pfPP
##JJxF
##XXXXXXXXXXXX
##mmmmmmmmmmmmmmmmmmmmmmm
##zF
##XXXXXIII
##SSSaaaaaaaaaa
##RCCC
##gf
##LLLsssgg
##BBBUUUU
##Fyyyyyy
##lTTTTTTT
##RRRRRRRCCCC
##BBxx
##AfPP
##LLLsssgggg
##ooVVVyyyyy
##ugwwwww
##eeeeeeeeehhhhhhh
##SSSSSzzz
##zzzzzO
##QQQoVVVVV
##Iyy
##rrrrrfff
##AAAAAAAAAAAAAAAA
##RRCCCCC
##bbI
##HHHkkk
##SSaaaaaaaaaa
##wwwwyy
##oobbbbkkk
##bkkkk
##uj
##mmmmmmmmmmmmmmmnF
##obbbbk
##bk
##uugwwwww
##yyyyyyyffff
##XXXXXXXI
##Fiiii
##BBBBBBUUUU
##rrrrrrf
##yyyDDDDiii
##eeh
##BBBBBBBBBxxx
##oobkkk
##wgg
##oobbIIII
##DDDUUUU
##SSSSSaaaaaaaaaa
##BxF
##zzzzzzzOOO
##mmmmmmmmmmmmmmmmmmmmmmmmn
##zzOOOO
##xxVVVVV
##JJxxx
##AAAAAw
##JJJJJxF
##oHHHHHHk
##SSSSzzzzzzzz
##zzzzzzzO
##pjPP
##eeeeeeeeeeeehhhhhh
##lllF
##xxVVyyy
##QoVVVVyy
##JJUUUUU
##QT
##LLLsssuuuuuuuu
##pkkQQQQ
##XXXXXk
##LLssssggg
##oVkk
##bbbbI
##SFS
##zzzzOOOOO
##Fbbb
##DDii
##eeeeeeeeeeeeeeeeeeeee
##OOOOOOOOvvvvv
##Fnnnnnn
##mmmmmmmmmmmmnnn
##zor
##zzzzzzOOOO
##MMMMMMMMMMnn
##llllllTTTTTTTT
##DDssss
##DDDDDiiiii
##RRRCCCCCC
##AAAPPP
##KKKKKNN
##KKKKKNNNNNNN
##obbbbbbbbb
##BBBBBxF
##KKWWWWWWWW
##WWE
##mmmmmmmmmmmmmnF
##fffP
##bbbbbbbbkk
##QQQQQQo
##oobbkkkk
##JJJJJJJJxx
##RRRRRRCCC
##uuuuuwww
##uggggg
##mmmmmmmmmmmmmmm
##oVVVkk
##lllc
##ppppppjjjjjj
##XXXXXXXk
##GGGGGGGGGx
##Szzzzzzzz
##VVVyDDDD
##HHf
##aaaaaaaaaaaaaaa
##za
##mmmmmmmmmmmmmmmmmmmmmm
##bbbbbbbkkk
##SSSSaaaaaaaaaaa
##Vyyyyy
##RRRCCC
##GGGGGGxxx
##obbbbbbbIII
##BBBBBBBBx
##AAAAAF
##bbkkkk
##LAAAAAAAAff
##SSST
##FB
##WEE
##yR
##BBJ
##uuggggg
##yyyDDDDi
##mmmmmmmmmmmmmmmmnn
##QQQLLLLss
##FPPP
##Mq
##IFI
##zzO
##nnnCCCCCC
##SSSSSzzzz
##BBBBBBBBBxx
##oobbbbbbIII
##oLV
##HHHHHHIIII
##EEEEEEEEEEEEEEEEEEE
##llllllll
##JQ
##ppppss
##mmmmmmmmmmmmmnnn
##IFII
##HHkkk
##LAAAAAA
##JJJJUUU
##dr
##dddrr
##LLLLssssss
##Faaaaaaa
##uwF
##AAAww
##Lssssss
##cccccxxxx
##eeeh
##LLsssggg
##Fqqq
##zzzOOOOO
##KWWWW
##oVVVVyyyy
##rrff
##OOOOOOOOOOOOOOO
##uugwww
##zzzzzOOOOO
##rrrF
##gFgg
##UxF
##uuuuuuuuuuuuggg
##LLLsswwww
##XXXXXXXXIII
##QQQobbb
##pppppppjjj
##QLLL
##obbbbbbkk
##Fssss
##wr
##GoVVV
##VVVyyyyyy
##QLLLs
##tnF
##yyyyDDDDiiii
##GGF
##FUUU
##bbk
##Tooo
##AfF
##ppjPP
##Fv
##ppjjQQQQ
##cccccccxxxx
##AAAAAAAAAf
##uuuuuuuuugggg
##yyyDDDDii
##JJJUUU
##yyyyfffiiii
##DDiii
##DDiiii
##Ar
##pkkj
##ccccccxxxx
##Vyyyyyy
##GGoVVV
##EWWWWWWW
##uuuuuuuuuuuugg
##yyyyyyyyyff
##tttttttttttttttttttt
##QQQQoo
##KKKKKN
##wwwr
##Ql
##eeeeeeeeeeeeehhhhh
##Fpjjj
##zzo
##llllllTTTTTT
##QQoor
##etttt
##mmmmmmmmmmmmnF
##mmmmmmmmmmmmmmmmmmmmmmmmmn
##obkkk
##pjjjjj
##mmmmnnnnnnn
##dddF
##yDDDDiiii
##yyyDDDDiiiii
##Dff
##Fyn
##ppjjjQQQQ
##JJJJJJJJxxx
##RRRRRRRRRRRR
##Fttttt
##JJJJJUUU
##LLLLLssss
##lllllllT
##zzOOOOO
##QLLssss
##zooV
##ooVVVVyyy
##obbbbbbbIIII
##TTooo
##Df
##lcccccccc
##oobbbI
##llQQQ
##ppww
##LLLssswwwww
##Ay
##AAAAAAAAAAAfff
##LAAAAAAAAAff
##ppw
##yyDDDi
##FQQQ
##nnCCCCC
##Fvv
##TTTTTTToo
##uujj
##KKz
tttttt
##pppjjjQQQQ
##JJF
##mmmmmmmmmmmmmmmmmnn
##yDDDDii
##obbbbbk
##ppPPPP
##mmmmmmmmnnnnn
##zzOOOOOO
##dO
##mmmmmmmmmmmmmm
##eeeeeeeeeehhhhhhh
##SR
##uuuuuuwwwwww
##QQr
##RRRRRRRCCCCCC
##eeehhhhhhh
##yyDDDDiiiii
##mmnFnn
##FCCCCC
##lSSSSSS
##pppppppjjjjj
##GGGGGGGGxxx
##yDDDDiii
##lllllTTTTTTTTTT
##rrrf
##wwwwpppjj
##HHHHHHHHHHH
##DDDUUUUU
##QQoVVVy
##ddF
##AAAPPPP
##oVkkkk
##ffPPP
##Fg
##DDDDUU
##eeeeeehhhhh
##QQrrrr
##uuugwwwww
##nFnnnnn
##ccccccccccxx
##wf
##AAfPP
##ccxF
##ug
##EWW
##AAfF
##uuuuuujjjj
##pkkkQQQ
##zzzOOOOOO
##FTTTTTT
##SSSSST
##uuwwwwwww
##gwg
##eeeeeeeeeeeeehhhhhh
##ooVVyyyyy
##FEEEEEEEEE
##kkkkk
##Qorrrrr
##BBBBBUUUUUU
##TTTTTTTTTTTTTTTTT
##ooVVVVVV
##JJJJJJJJx
##JUUUU
##xVVVVV
##LLVV
##mmmmmmmmmmmmmmnnn
##JJJJJUUUUUU
##cccxF
##orV
##SSSoo
##UUdddd
##yyyyfffiii
##kkQQQQ
##GGGGGGGGGxx
##QEE
##Qoobbb
##Pll
##uuuggggg
##een
##oVVy
##oobbbbbbIIII
##oVVyyyy
##QQoVVVyy
##MMnnn
##MMMMMMMMMMMMMMMMMMM
mmmmmmmmmmmmmmmmmmmmmmmmmmmmmmmmmmmmmmmmmmmmmmmmm
##yyyF
##eeeeh
##MMMMMMMMMMMMMn
##uuj
##llcccccccc
##JJUUU
##SSSSoo
##BBBBBBBUUUUU
##yyyyyfffiiii
##lllTTTTTTTTTT
##obbIIII
##uwwwwwww
##yyyyn
##QQQobbbbb
##yyyDDDi
##mmmmmmmmmmmmmmmmmmmmmmmmmmn
##obbbbbbbII
##nnnnCCCC
##QQoVVVVy
##OOOOOOOOvvvvvv
##QJJ
##FKKKK
##ddr
##OOOOvvvvvvv
##zzzzOOOOOO
##wwg
##oobbbbbbII
##ehh
##Bxx
##oobkkkk
##Hf
##LLLssssuggg
##ccxxxx
##QQR
##SC
##nFy
##ppjjjjjjj
##QQQQQLLLsssss
##oobbbbI
##yyyDDDiiii
##MMMMMtttttttt
##xxVVVVy
##QQQQQF
##eeeeeeeeeeeeehhhh
##SSSTT
##ppg
##OOOvvvvvvv
##QEEEE
##zzzzzzOOOOO
##HHHHHHHHkk
##ccccccccccxxx
##OOOvv
##SFSS
##QEEEEE
##wwwwwwww
##JJJJJJJJJxxx
##rrf
##QVV
##EW
##OOOOOvvvvvvv
##XXXXI
##lllllc
##pfff
##SSSSTT
##zzzzzzzOOOO
##bbbbIIIII
##yyyyyffiiiii
##llllllTTTTTTT
##Qrrrrr
##yyyppjj
##yyyyyyffiiii
##QQQorrr
##MMMMMnnn
##mmmmmmmnnnnnn
##mttt
##Saaaaaaaaaaa
##AF
##pP
##PPPll
##obbbbbIIIII
##mmmmmmmmmmmmmnnnn
##SSSFS
##yyF
##bbbbbbbbbb
##zrrrr
##JJJJJJJUUUU
##QobbbbIII
##AAAAAAww
##lllllllTT
##XXXII
##mmmmmmmmmmmmmmnnnn
##yyyyyyyyyyyyy
##SSFSS
##HHHHkkk
##obbbbIIIII
##BBUUUU
##HHHHHIIII
##IFk
##BBBBBBBBBBBBBBB
##UQQ
##SSoo
##llllTTTTTTTTTTT
##zzzzzOOOOOO
##WWWWWWWWWWW
##LLLssgg
##oVVpkk
##MMMMMMnnn
##Qob
##ccccxF
##zzzzO
##oLLLs
##JJJJUUUUUU
##RRCCCCCC
##ooVVVyyyyyy
##BBBBBBBBBx
##QEEE
##mmmmmmmmmmmmmmmmmmnn
##yyyyffiiiii
##nnnnnnnnnnnnn
##RRVV
##oHHHHHHHk
##obkkkk
##oHHHHHHHHH
##mmmmmmmmmmmmmmmmmmmmmmmmmmmn
##mmmmmmmmmmmmnnnn
##SSaaaaaaaaaaa
##BBBBBBBBBBxxx
##rHHHHHHH
##nnCCCC
##bbIIIII
##uuwF
##VVVyyDDDD
##ffiiii
##eeeeeh
##BBBBUUU
##ooVVyyyyyy
##RRRVV
##zOOOO
mmmmmmmmmmmmmmmmmmmmmmmmmmmmmmmmm
##rrrKKNNNN
##zzzO
##SSSSSzzzzz
##mmmmmmmmmmmmmmmmmmmnF
##dF
##eeeehhhhh
##SSSaaaaaaaaaaa
##CCCCCCCT
##AAAAfF
##eeeeeeeehhhhh
##BBBBUUUUUU
##meee
##LF
##AAAAwww
##tttttn
##uuuuuuuuuuuu
##ppjww
##BBBBBBUUUUUU
##RRCCC
##RC
##LLLssssgggg
##mnmmn
##QS
##OOvvvvvvv
##zoorr
##BBBBBBxF
##JJJJJJJUUUUU
##JJJJJJJJJxx
##zzrrrr
##Qoorrr
##AAfk
##FQQQQ
##zorrr
##yyyyyfffiii
##HHHHIIII
##bbbkkkk
##MMMMMMMnnn
##xVVVVy
##Fpjj
##eeeeeeeeeeehhhhhhh
##oLLss
##oobbbbbkk
##ppjjjQQQ
##HHHIIII
##Iff
##uuuwwwwwww
##mmmh
##uuuuuuuujjj
##ddrrrr
##ttnF
##KO
##eeeeeeeh
##VVVVyyyy
##kPPPPP
##cccccxF
##MMMMMMtttttttt
##QQLLLs
##mmmmmmmmmmmmmmmmmnF
##nnCCCCCC
##yyyyyyyf
##JJJJJJxF
##RCC
##uuuuugwwww
##JJJJJJJJJJJJJ
##mmmmmmmmmnnnnn
##llllccccccc
##pkjj
##orrrrrr
##LLLsssswwww
##SSl
##UUddddd
##GGGGxx
##ujj
##LLLLsssggg
##LLLssssuuggg
##BBUUUUU
##MMMMnnn
##oVVVVVyy
##MMMMMttttttttt
##oO
##nnnnCCCCC
##drrrrr
##eeeeeeeeeeeeeehhhhhh
##As
##QLLsss
##MMMnnn
##KKKKKKNNN
##SSSSSSaaaaaaaaa
##QEEEEEE
##uuuj
##sssggg
##MMMMMMMMMMMnn
##yw
##mmmmmmmmmmmmmmmnnn
##FWWWWWW
##llQF
##bbbbbbbIIIII
##eeeeet
##MMMMMtttttttttt
##SSSSSaaaaaaaaaaa
##HII
##PPPl
##EEWWWW
##pkkkQ
##pgj
##GGooVV
##TTTooo
##kQQQQ
##ugww
##uuuuuuuwwwww
##LAAAAAAA
##ddddF
##eeeeeeh
##LAAAAA
##SST
##DDF
##SSSSaaaaaaaaaaaa
##AAAfF
##mmmmmnnnnnnn
##RRRRRRRRCCCCC
##yyyfffiiii
##llllF
##mmmmmmmmmmmmmmmmmmmmmmmmmmmmn
##oLLssssss
##mmmmnFn
##jjjjjj
##QQQLLssss
##uuugwww
##oobIII
##DDUU
##LAAAAAAAff
##yyyppjjj
##MMMMMttttttttttt
##PPPPQQ
##BBBBBUUU
##VVVVVV
##AAAAAAAAAAAAAff
##BBBBBBBUUUU
##IIIIIIy
##Vr
##OOOOOOvvvvvvv
##Pl
##rrrrfff
##QQQooV
##uggww
##mmme
##RVV
##QoLLLsss
##SSSF
##NNNNNN
##LLLssssgg
##EEWWWWW
##mmmmmmmmmmmmmmmmmmmnn
##llccc
##uuuuggggg
##JxF
##HIII
##GGooVVV
##Bxxx
##BBxxx
##KKWWWW
##QoVVVyyyy
##Hr
##FVy
##zrrrrr
##cccccccccx
##uuuuuuwww
##Fvvv
##XXXXIII
##GGGF
##oobII
##llcc
##SSSSzzzzzzz
##Mnnnn
##dddrrr
##bbbbbbI
##MMMMMMMMnnn
##cccccxxVV
##oobbbbbbbbb
##kkQQ
##mmnnnnnnnnn
##AAAAAAAAffff
##hhhhnnnnn
##nf
##llllllcccccccc
##rHHHHHk
##yyppjj
##mhhh
##pppjjQQQQ
##eeeeeeeeeeeeeeeeeeeeeeeeeeeeeeeeee
##HHHHHHHHHHk
##RF
##PQQ
##yyyyDDDDiii
##pppjjjjQ
##BBBBBBBBBBxx
##RRRRRCC
##mmmmnnnnnnnn
##wMMMMMMM
##Fppjjj
##mmmmmmmmmmmmmmmnnnn
##yyyyDDDiiii
##HHHHHHHIIII
##ooHHHHHkk
##BBBUUU
##RRRRRRRCCC
##MMMMtttttttt
##Hkkk
##bIIIII
##XXXXXXXXI
##yyyyffiii
##Fqqqq
##llQQQQ
##yyA
##SSSTTT
##eeeeeehhhhhhhh
##uuuugwwwww
##JJJJJJUUUUUU
##eehhhhh
##lllccccccc
##mnmnn
##eehhhhhhh
##bbbIIIII
##EEWWW
##mmmmmmmmmmmmmmmmmmnF
##zzzzzzzzOO
##dddr
##If
##Fx
##RV
##bbbbbbbbIIII
##yyyfffiii
##wrr
##uuww
##JUUUUU
##MMMMMMnF
##yyyyfffff
##lQQo
##pppppjjjjjjj
##ujjjjj
##RRVVV
##fffff
##oHHHHkk
##lllllcc
##OOOOOOOOOvvvv
##JB
##mmmmmmmmmmnnnnn
##llU
##zzzzzzzzzOO
##uugww
##llTTTTTTTTT
##oobbbkkkk
##DDDDssss
##ddddrr
##xxxxVV
##WEEE
##rO
##mnnnnnnnnnn
##QQx
##LLLsssswwwww
##GGGoVVV
##BQ
##MMMMMMMMnF
##Qzz
##Qoobb
##LLLFsss
##yyyyDDDDiiiii
##AAAAAAAAAAf
##RRRRCC
##ffiii
##MMMMMMMnF
##QoLLLsssss
##lllllccc
##eeett
##LAAAAAAAAAAff
##rHHHHHHk
##cxF
##yyyffiiii
##ffK
##mmmt
##yDDDi
##gFss
##rrrrKKNNNN
##SSTT
##LLAAAAA
##uuuuuuuujj
##mmmmmnFn
##nFtt
##yyyyyffiii
##ddddddddddddddddd
nnnnn
##uww
##kkQ
##obbI
##PPPPPl
##EEEEEEEEEEEEEEEEEEEE
##FHH
##pDDD
##QobbbbII
##bbbbbbbbIII
##FIIII
##Qobbbkkk
##Fppjj
##mmhh
##LLLssssuuuggg
##MMMMttttttttt
##ry
##SSSGGGGGG
##Hb
##lllllcccc
##RRRRRCCCCCCC
##kQQ
##MMMMtttttttttt
##QQQQobbbb
##FOO
##GGoo
##kI
##yyyyppjj
##zzzzzzzzO
##llllQQ
##nnnCCC
##yyyyDDDDi
##lQQQo
##Qoob
##obbbbbbI
##JJJUUUUUU
##kkSSSSSaaaa
##MMMMttttttttttt
##ST
##RCCCCCCC
##yyyDDDii
##MMMF
##oLLL
##MMMMMMttttttttt
##JJJJJJUUU
##yyyyyffiiiiii
##hhhhhhhhhhh
##pppjjjQQQ
##LLLssgggg
##uggwww
##Qobbbbkk
##Afk
##IIyy
##cccccccccxxxx
##uuuuuuuwwww
##yyyppjjjj
##SSSGGGGG
##RRRRRRRRCCCC
##JJJF
##KKKKKKNN
##zzzzzzOOOOOO
##GooVVVV
##yyyfffff
##mmnmn
##QooVVVy
##yyDDDiiii
##LLAAAA
##IFkk
##llllQ
##Fbbbb
##lllllllTTT
##mmmmmmmmmmmmmmmmmmmmmmmmmmmmmn
##PQQQQ
##ehhh
##KKKKKKNNNNN
##rrrKKNNNNN
##BBBUUUUUU
##RRRV
##eeeeeeeeeeeehhhhhhh
##MMMMMMtttttttttt
##rrrrKKNNNNN
##gFggg
##eeeeeeeeeeeeeeehhhhh
##kQ
##yyyDDDDiiiiii
##UQ
##OOOOOOOOvvv
##Kzz
##BUUUU
##llcccc
##yyyyyn
##pgg
##LLLLssggg
##llc
##uuuuuj
##yyDDDii
##mmmmmmmmmmmmmmmmmmmmnn
##lllllTTTTTTTTTTT
##RRRRRC
##KKKKKKN
##uuuuj
##uug
##mmmmmmmmmmmmmmmmnF
##ArF
##HHHHHkkk
##BBBBBxxxx
##Fppjjjj
##eeeeeeeeeeeeeeehhhhhh
##yyyyffiiiiii
##LLLsswwwww
##oooo
##HHHI
##qqqqqqqqqqqqqqq
##IbIIII
##uuuww
##mmmmmmmmmmmmm
##Jxxxx
##MMMMF
##MMMMMtttttttttttt
##Assss
##zzzzzzzzOOO
##eeeeeeehhhhhhhh
##eettt
##RRRRC
##yyyDD
##Plll
##kkSSSSSaaaaa
##wwwpppjj
##oobbbbbI
##yyyDDDiii
##mmmnFnn
##GGGx
ttttttt
##zzzOOOOOOO
##zzzzzzzzzOOO
##QobbbbbIII
##DDDDDiiiiii
##Kr
##oVVVpkk
##eeeeehhhhhhhh
##JJJJJJxxxx
##AAfPPPP
##yyDD
##GGGGF
##rrrrrrrrrr
##LLsssssuggg
##BBBBBBxxxx
##uggwwww
##RRV
##wMMMMMMMM
##LLAAAAAA
##MMMMMMMMMnF
##QobbbIII
##FLssss
##LLAAA
##QQQQoVV
##ooHHHHHH
##SSTTT
##FTTTTTTT
##yDDDDDD
##JJJJJJJJJx
##cccxxxx
##uuuuuuuuuuuuugg
##kkSSSSSaaa
##Qooo
##JUUU
##wwwwwwy
##eeeehhhhhhhh
##XXXXXXXXXII
##GoF
##OOvv
##lTTTTTTTTT
##oobbI
##xxVVyyyy
##Saaaaaaaaaaaa
##yyyyyyyn
##Ftttttt
##ppjF
##QEEEEEEE
##eeeeeeeeeh
##eeeeeeeehhhhhhhh
##rPPPP
##EEWWWWWW
##yynn
##RRRRRRCCCCCCC
##yyyyfffii
##SSSSSzzzzzz
##bbbbbbbk
##hnn
##RRRRCCCCCCC
##obbbbkkkk
##TTTTTTTTTTTTTTTTTT
##XXXXXXXXXIII
##MMMMMMttttttttttt
##rVV
##MMMMMMMMMnnn
##QQQQLLLLssss
##zzzzzzzOOOOO
##FLLssss
##QooVVVyy
##ppsssss
##obbbbbbbkk
##LLLsF
##ffSSSS
##KKKz
##PPPQQ
##WWEE
##yyyDDDiiiii
##yyypppjjjj
##QoLLssss
##DDDDiiiiiii
##IIssssss
##uuuuug
##BBBBBBBBBBBxxx
##DDDiiiiiii
##RRRRRRCC
##ppf
##ttttttn
##uuuuuuuuuugggg
##LLLssF
##STT
##mmmmmmnnnnnnn
##UUdddddd
##dz
##LLsssssggg
##oobbbbIIIII
##MMMMMnF
##pgPP
##RRRRVV
##yyyyyyyyyfff
##JJJJJJJJJJxxx
##MMy
##obbbk
##QQQooVVVV
##yyyyfffiiiii
##mmmmmmnFn
##mmmmmmmmnnnnnn
##Foo
##Kvvvvv
##yyyyDDDDii
##lllTTTTTTTTTTT
##MRR
##SSSSTTT
##yyyyDDDi
##uuuuuuuuuuuuuggg
##zooVV
##cccccccccccxxx
##mtttt
##pppssss
##mmmmmmmmmmmmmmmmmnnn
##JJJJJJJxxxx
##mmmmmmmmmmmnnnnn
##QQQobbbbbb
##zzorr
##uuuuwwwwwww
##GGGGGc
##TTTTTTTToo
##OOOOOOOvvvvvvv
##OOOOOOOOOvvvvv
##mmmmmmmmmmmmmmmmmmmmmnn
##QRR
##GGoVV
##QQQL
##XIII
##eeeeeeeeh
##MMMMtttttttttttt
##BBBBBBUUU
##RVVV
##eeen
##FoV
##eeeeeeeeeehhhhh
##rHH
##ccccccxF
##RRRRRRRRCCCCCC
##rrrrrrfff
##obbbbbbIIIII
##hhnnn
##yyyyyyffiiiii
##RRRVVV
##FEEEEEEEEEE
##Kvvvv
##SSzo
##kkkQQQQQQ
##LLLsssgF
##SSaaaaaaaaaaaa
##mmmmmmmmmmmmmmmmmmmmnF
##OOOOOOOOOF
##uuuuww
##ppjjQQ
##mmmmmmmmmmmmmmmmmmmmmmmmmmmmmmn
##APP
##UUddd
##IFIII
##SQQ
##FAA
##oorAAAff
##wwrr
##yyyyDDDiiiii
##yyyD
##pI
##RRRCC
##BBBBBBBBBxxxx
##GGGGGxxx
##BBBBBBBxxxx
##FoVVV
##AAAfPPP
##mmee
##lccc
##lc
##EEEErrr
##Sl
##llllllTTTTTTTTT
##eeeeeeeeeeeeeeehhhh
##oVVVVyyyyy
##BBBBBBBUUUUUU
##SSSSSTT
##Qobbbbkkk
##APPPPPP
##nnnnCCCCCC
##oVVyyyyyy
##AAAAAfF
##lcc
##xxVVVyyyy
##yyDDDDiiiiii
##OOOOOOvv
##zzzzzzzzzO
##lB
##GGGGGGGGGxxx
##FVyy
##uujjjjj
##QoLAAAAAAAA
##RRRC
##ookk
##GooV
##zzzzOOOOOOO
##tnnn
##yDDDDiiiii
##mmmmmmmmmmmmmmmmnnn
##DDUUU
##oHHHHHk
##STTT
##EEWW
##lllU
##kkSSSSSaa
##rrrrrrrff
##uuuwF
##cccccccccccxx
##wMMMMMM
##QQLLL
##RRRRRRC
##rHHH
##FLLsss
##JJUUUUUU
##pfPPPP
##rHHHHHkk
##hhF
##oVVyyyyy
##AAAAAAAAAAAAfff
##FVVV
##eeeeeeeeeeeeeeeeeeeeeee
##Sll
##KKKKKKNNNNNN
##HHIIII
##llllTTTTTTTTTTTT
##wwwwppjjj
##QQoLLLssss
##SSSaaaaaaaaaaaa
##Soo
##WWWE
##wwwwwwppjj
##ffk
##oVVVyyyyyyy
##ccccxxxx
##MMMMMttttttt
##GGGGGGc
##mmmmmmmmmmmmmmmmmmmmmmmmmmmmmmmn
##oobbbbbbbIII
##RRRRV
##SSSSSSaaaaaaaaaa
##zzoo
##uuuuuuuuujjj
##MMMMMttttttttttttt
##ccccccxxVV
##uuugww
##QLLLLs
##ppgj
##nnnnCCC
##zzrrr
##QQoVVVVyy
##EEEErr
##QQQQLLLLsss
##MMMMMMMtttttttt
##yyDDDiii
##Pllll
##EEErrr
##QobbbbIIII
##llSSS
##mmmmmmmmmmmmmmmmmmmmmnF
##SSSSSaaaaaaaaaaaa
##Asss
##wwy
##yyyyyyn
##pppjk
##zOOOOO
##SSFSSS
##QJJJ
##uuug
##KKKKKEEEEE
##aaaaaaaaaaaaaaaaa
##GoVV
##LAAAA
##yyyyF
##meeee
##zzrrrrr
##TTTTooo
##MMMMMF
##oorrAAff
##gFg
##AAAfPP
##nnnnnnnnnnnnnnnn
##KKKWWWWWW
##eeeeeeeeehhhhhhhh
##zrrrrrr
##RRF
##eeeeeeeeeeeeeeeehhhhhh
##AAAAAAAAAAAA
##GGGGGGxF
##rrrrF
##yyyyppjjj
##BBBBBBBxF
##Uddddd
##BBBBxxxx
##yyyA
##BBBBBBBBBBx
##oHHHHHII
##Fqqqqq
##yyDDDDDD
##mmmmmmmmmmmmmmmmmmmmmmnn
##QoVVVVVV
##eeeeeeeeeeeeehhhhhhh
##HHHHHHHHIII
##dddddddddddddddddd
##obbbbbbkkk
##KKKKKKEEEEE
##ggggQQ
##Qobbbkk
##Fpp
##SSSzo
##RT
##JJJJxVV
##py
##BBBBBBBBxxxx
##uuuuugwwwww
##oobbbbbIIIII
##BUUUUU
##KWWWWWWWWW
##QQQoVVVy
##KKKKF
##MMMMMMMMMMMMMMn
##wM
##pppppppjj
##SSSSSoo
##XXII
##QQooo
##BBUUU
##KKKKKEEEEEE
##QQQQQLLLsss
##HHHHHHHHf
##LLLsssssggg
##yyyyDDDii
##QQQoVVVyy
##mmtt
##zzOOOOOOO
##kkv
##QQQQQLLLLssss
##QEEEEEEEE
##KKKKKKEEEEEE
##MMMMMMMMMMMMnn
##xV
##zzzzzOOOOOOO
##BBBBBxxV
##Rn
##HHI
##XXXIII
##yyypppjjj
##uuuuuug
##rrrrKKKNNNNN
##zrrr
##FLsss
##wwwwwyy
##uuuuuggggg
##lUU
##lcccc
##JJJJJJJxF
##mmmnnnnnnnnn
##QobbbII
##oVVVpp
##PPPPPPP
##mmmmmmmmmnnnnnn
##SSSSSSSa
##FTTTTTTTT
##mmmmmmmnFn
##Faaaaaaaaa
##Go
##cccccccccccccccc
##mmmmmmmmmmmmmmmmmmmmmmnF
##Qoobbbbb
##uuggww
##ccccccccccxxxx
##ddO
##KKKKKKKKKKKKKKKKK
##WWWWWWWT
##Ibb
##ettttt
##tttnF
##zzzOOOOOOOO
##mmmmmnnnnnnnn
##yyD
##MMMMMMMMMMnF
##oVVVyDDD
##LLssssuggg
##zzor
##kkQQQ
##yyyyyfffiiiii
##yD
##uuuugwww
##ppjjjjQ
##SSTTTT
##llFl
##yyyyyyyyffff
##LoF
##RRC
##LLssssuuggg
##eehhhh
##JJJJUU
##JJJUU
##oobbbIIIII
##zzzzzzzzzOOOO
##KKKKKNNNNNNNN
##llTTTTTTTTTT
##GGGGc
##yyyyyfffff
##yyyyyyfffiiii
##HHHHHI
##uuuuuuujjjj
##pn
##ggggQQQQ
##AAAfk
##MMMMMMtttttttttttt
##MMMMttttttttttttt
##rrrrrKKNNNNN
##FJJ
##WEEEE
##GGGGGxF
##lllllccccc
##yyyyDDDiii
##yyyfF
##mnFnnn
##ooLLLssss
##GGGGGGxxVV
##Bxxxx
##oobbbbbbbIIII
##yyyyyyffiiiiii
##BBBBBBBBUUUUU
##ooLLsss
##rrKKNNNN
##MMMMMMttttttt
##JJJJxxVV
##obbbbbkPPP
##LLLssgF
##KNNNNNNN
##AAAw
##QQoobbbb
##mmmmmmmmmmmmmmmmmmnnn
##KKKWWWWWWW
##oHHHHII
##VVVVVy
##oorV
##bbbbkkkk
##MMMMMMMMMMnnn
##AAAAAAAAAffff
##BBBBxVV
##pppjjjjQQ
##Fynn
##STTTT
##oVVVkkk
##lllllllTTTT
##ttnn
##ffSSS
##kkSSSSSaaaaaa
##lBB
##EEEEErr
##fPPPPPP
##HHHHI
##oVVVyDDDD
##eeeeeehhhh
##BBBBxxV
##PQ
##rI
##RRCC
##uuuuuuuuujj
##Fvvvv
##yyyyDDDDiiiiii
##obbbbbbkPPP
##OOOOOOOOOvvvvvv
##LLLsssuuuuggg
##zzzzzzzzOOOO
##mmmmmmmnnnnnnn
##EEErr
##DDDDDj
##CCCCCCCCT
##rrrrrKKNNNN
##LLsssssuuggg
##JJJJJJJJJJxx
##LLLssssuuuuggg
##fffiii
##LLssssuuuggg
##pfP
##LAAAAAAff
##LLLssswww
##GGGGGxVV
##ppFjj
##EEEEErrr
##SSSSzo
##BJJ
##LLLsggg
##HHHHHHI
##dddddF
##LLFLsss
##zzOOOOOOOO
##ooob
##Fyyn
##AAAAAwww
##bbbbbbbbII
##fKK
##uuuuuugwwww
##mmmmmmmmmmmmnnnnn
##QobbbbbII
##Fzzzzz
##mmmmmmmmmmmmmmmmmmmmmmmnF
##AAPP
##FHkk
##BBBBBBBBBBBxx
##llccccc
##Ovvvvvvv
##uuuuuww
##obbbbbbbbIII
##LLLsssuuuuuggg
##wwyy
##QQQobb
##mnnmn
##EEW
##ppD
##JJJJJJJUUUUUU
##Fpjjjjj
##FCCCCCC
##yyyAff
##QQLLsss
##yyyffiiiii
##OKK
##mmmmmmmmmmmmmmmmmmmmmmmnn
##RU
##aT
##FUUUU
##RRRCCCCCCC
##lTTTTTTTTTT
##hhhnnnnn
##EEEEEEEW
##zaa
##eeeehhhh
##eeeeeeeeeehhhhhhhh
##GGGGGGGc
##Fllll
##mttttt
##fffiiii
##uuuuuuj
##yyyyyfffii
##KWWW
##Xb
##wMMMMMMMMM
##rPPPPP
##pppppppj
##MMMMnF
##mmmmmmmmmmmmmmmmmmmmmmmmmmmmmmmmn
##eeeeeeeeeeeh
##QobbbbbIIII
##Fttttttt
##oVVVyyDDD
##uuuuuwwwwwww
##LAAAAAAAAfff
##KOO
##ppFj
##zzzzOOOOOOOO
##Hff
##sssgF
##EEErrrr
##uuuuuuuwwwwww
##QQQrr
##lJ
##oobbbbbkkk
##bbbbkkSSSS
##RRRRRRRCC
##XXXI
##SSSSaaaaaaaaaaaaa
##ffiiiii
##JJJxVV
##oobbbbbbbII
##ccccxxVV
##QQQoVVVVy
##ppppps
##WEEEEEE
##Udddd
##oobbbbk
##obbbbbbbbIIII
##LLLLLsssss
##MMMMMMMMMMMMMMMMMMMM
##nCCCCC
##LAAA
##yyyfffii
##UUQQ
##JJJJJxxVV
##GGoVVVV
##XXIII
##SSSSFS
##fffi
##jf
##uuggwwww
##rrrrKKKNNNNNN
##oz
##mmmmmmmmmmmmmmmmmmmnnn
##FBB
##FQoo
##RE
##uuuuuuuugF
##eeeeeeeeeeeeeeeeehhhhh
##wwwwwpppjj
##uuuug
##WWWWWWWTT
##MMF
##HIIII
##ooVVVVyyyy
##HI
##oVVVVVyyy
##AAAAAAfF
##zzzzzzzzzzzzzz
##nCCCCCC
##GoVVVV
##IFb
##DDFD
##oHHHHHIII
##nnCCCCCCC
##ccxxVV
##QQJ
##llUU
##oVVF
##XXXXXXXXk
##eeeeeeeeeeh
##lllUU
##yyfF
##ccccccccx
##HF
##ppppjjjjjjjj
##LLAAAAAAA
##BBBxVV
##oLVV
##rrrrrrrf
##KKKKKKKEEEEEE
##BBBBBBBBBBBBxxx
##fffii
##ggPPP
##AAAAAAF
##yyyyyyffiii
##ooVVyyyyyyy
##oobkk
##pw
##KS
##yyr
##QQoorr
##llllllc
##obbbbbbbbbb
##eeeeeeeeeeeeeehhhhhhh
##LLLLLsss
##RRRRRRRRCCC
##oLLLLsss
##VVVVyyyyy
##okkkk
##WEEEEEEE
##GGGGGGGGGGx
##SSSTTTT
##okkk
##XXXXXXkk
##uuuugww
##BBBBBxxVV
##MMMMMtttttttttttttt
##yyyfffiiiii
##AAAAAAAAAAAf
##uw
##EErrr
##oLLAAAAAAAA
##dddddrr
##zOOOOOO
##GGGGGxxVV
##BBBxxxx
##XII
##yyDDDiiiii
##SSSFSS
##lllQF
##MMMttttttttttt
##llQQo
##UUxx
##eeeeeeeeeeeeeeeeehhhhhh
##ynnn
##oHHHHHHHkk
##BBBBBBBBUUUU
##LLLsswww
##qqqqqqqqqqqqqqqq
##cccxxVV
##rrrrrKKKNNNNNN
##bbbbbbbbkkk
##BBBBBBBBBBxxxx
##yyyDDDiiiiii
##ccccccccxxxx
##RRRRRRRCCCCCCC
##pppjjjjjjjj
##LxF
##EEEEF
##HHHHHHHHHHHH
##EEEEEEEEW
##lllllTTTTTTTTTTTT
##wwwwwppjjj
##JJJJJxxxx
##xxVkkk
mmmmmmmmmmmmmmmmmmmmmmmmm
##DDf
##kvvvvv
##BUUU
##FbIII
##yyyyyDDDDiiii
##XXXXXXXXXI
##Qd
##eehh
##Szo
##ppFjjj
##LLssggg
##EEEEEEEEEEEEEEEEEEEEE
##uuujjjjj
##TTTTTTTTToo
##QQE
##bbbkkSSSS
##xxVVVVyy
##AAAAAAAAAAAAAAff
##QQobbbbbbb
##zzrr
##obbbIIIII
##Ap
##lllllccccccc
##JU
##zzzddd
##rry
##mmmmmmmmmmmmmmmmmmmmmmmmmmnF
##eeeeeeeehhhh
##nnnCCCCCCC
##LLssssuuuuggg
##JJJJJJJJJJJxxx
##wwwwpppjjj
##mmmF
##Fjjjjj
##Qc
##SSSSSSzz
##EWWWWWWWW
##QVVV
##PQQQ
##mmmmmmmmmmnnnnnn
##rrry
##DDiiiii
##JJJJJJJJUUUUU
tttttttt
##AAy
##MMMtttttttttt
##rFr
##mmmmmmmmmmmmmmmmmnnnn
##eeeeeet
##SSSSSSz
##zzzdddd
##oLLLssssss
##MMMMMMMttttttttt
##mmmmmmmmmmmmmnnnnn
##AAAAAAw
##GGGGGGGxF
##STTTTT
##DDUUUU
##QoVVVVyyy
##etet
##lllFl
##mnmmmn
##BQF
##Fiiiii
##WEEEEE
##JJJJJJJJxxxx
##uuggwww
##mmmmmmmmmmmmmmmmmmnnnn
##vvvvvvvv
##DDDUUUUUU
##KKKWWWWW
##Kvvvvvv
##uuuuuuuwww
##LLssssgg
##KKKKKKKEEEEE
##zzzzzzzOOOOOO
##ooVVVyyyyyyy
##zzzzzzzzzzOO
##ppjjQQQ
##EErrrr
##QQob
##obbF
##JQF
##rrrKKKNNNNN
##uA
##QQLLLLs
##FSSSS
##MMMMMMMMMMmmmmmmmmmmmmmmmmmmmmmmmmmmmmmmmm
##AAfP
##SSSSSST
##mnnnnnnnnnnn
##rrrrrKKKNNNNN
##QLLLLsssss
##bbbbbbbbbkk
##ccccccccccx
##Saaaaaaaaaaaaa
##MMMMttttttt
##JJJJJJJJUUUU
##yyyyyyfffiii
##WWWWWWTT
##Bc
##eeeeeeeeeeeeeeeeeeeeeeeee
##HHHHHHHHII
##oorAAff
##GGGGGGGxxxx
##yyyffiii
##yyynn
##enF
##eeehhhhhhhh
##FSa
##mmmmmmnnnnnnnn
##yyyyDDDiiiiii
##QoLLsssss
##RRRRRRRC
##Frrrr
##ooVVVVVy
##mmmmmmmmmmmmmmmmnnnn
##mmmmmmmmmmmmmmmmmmmmmmmmmmmnF
##uuuuuuug
##yDDDDU
##oFVV
##LLFsss
##SSTTTTT
##yyfffff
##Qobbbbbkk
##QEEEEEEEEE
##bbbbbbbI
##QooVVVVy
##QooVVVyyy
##SSSSSSSaa
##rHHHHkk
##MMnnnn
##yyyyD
##eeeeeeeeeeeeeeeeehhhh
##KKKKEEEEE
##Fnnnnnnn
##nnnnnCCCC
##DDDDDU
##oHHH
##obbbbbbk
##ppkkQQQQ
##MMMMMMMtttttttttt
##GR
##GGGGGF
##Udddddd
##BBBBBBBUUU
##KKKKKKKN
##LLAA
##EEEErrrr
##bbbbbkkSSSS
##lJJ
##eehhhhhhhh
##MMMMMMttttttttttttt
##lUUU
##MMMtttttttt
##JJJJJUU
##yyyyyyyyyyyyyy
##JJJJJJJJJxxxx
##yyyyppjjjj
##MMMR
##ppjw
##LLLsssssuggg
##mmmmmmmmmmmmmmmmmmmmmmmmmnF
##HHHHHHHHHIII
##mmmmmmmmmmmmmmmmmmmmnnn
##LLLV
##oobbbk
##QoVVVVVy
##SQoo
##BBBBBBxxV
##rKKNNNN
##DDDDUUU
##WEEEEEEEE
##lllllcccccc
##SQo
##FRRR
##lllllQoo
##pppppppjjjjjj
##xxxVVy
##Qrrrrrr
##oVVVyyDDDD
##eeeen
##BBBBBBxxVV
##nnCCC
##mmmmt
##WWWWWWT
##LLLFss
##LAAAAAAAAAAAff
##FL
##SSSSSzzzzzzzz
##yDDDii
##zrr
##HHHHF
##yyfffiiii
##GGGoVV
##MMMMMMMMMMMnF
##QQVV
##QQQQQLLLLsss
##ppwww
##llFll
##LLLssgwww
##MMMttttttttt
##XXXXXXXIIII
##fn
##XXXXXkk
##JJJJJJJJJJx
##dOO
##AffP
##ccccccccccccxxx
##eeeeeeeeeeeehhhhh
##LLFssss
##mtttttt
##EEEF
##Ass
##LLLssssuuuuuggg
##kkkSS
##oobbbbbbkk
##KKKKKKEEEEEEE
##IbIII
##MMMMtttttttttttttt
##LLAAAAAAAAff
##SSSSGGGGGG
##wMMMMM
##obbbbbbbbbbbb
##TTTooVV
##pww
##WWEEEEEE
##EErr
##ppppjjjQQQQ
##llllllTTTTTTTTTT
##MMMMMMMMMMMmmmmmmmmmmmmmmmmmmmmmmmmmmmmmmmm
##AAr
##mmnmmn
##JJJJJJxxVV
##JJJJxxxx
##MMMMMMF
##QQQQQQQQQQQQ
##qC
##rrrrKKNNNNNN
##LLssssuuuuuuuu
##mmmmh
##BBBBUU
##mmmnmn
##oobIIII
##mhhhh
##SSSSTTTT
##BBBBxxVV
##yyyyfF
##nnnnnCCCCC
##FSaa
##MMMMMMMnnnn
##TTTTTTTTTTTTTTTTTTT
##zzzOF
##ggggQ
##QQQobbbbbbbb
##ooVVVkk
##Myy
##JJUU
##LLsssgg
##kkSSSSSa
##rrrfff
##KKKKKKNNNNNNN
##mmmmmmmmmmmmmmnnnnn
##KKKKEEEEEE
##EF
##yyfffiii
##yyyyyDDDiiii
##Fpppjjj
##oobbbbbbIIIII
##MMMMMMMttttttt
##GGGGGGGGGGxx
##ooVVVVVI
##LLLsssgwww
##MMMMMMnnnn
##AAAAAAAfF
##SSaaaaaaaaaaaaa
##OOOr
##ooVVVVI
##obIII
##QQQLLLLs
##oVVkkkQQQQ
##lQo
##GGGc
##Fyyyyyyy
##llllU
##PPPorr
##AAAwww
##zzzzzzOOOOOOO
##hhnnnn
##RRRRRRRRRCCCCC
##rrrrrKKNNNNNN
##MMMMMMMttttttttttt
##QQQR
##VVVyyDDD
##ppkkk
##ppjjjji
##LLLsssuuuggg
##GGGGGGGGGGGGG
##fkk
##llQo
##bbbbbbbbbbb
##LLLsssuuuuuuggg
##uuuuuuuj
##llJ
##pfF
##ddddddF
##yyR
##Fqqqqqq
##rHHHHHHHk
##obbbbbbbbII
##obbbbIF
##SSSSSSaaaaaaaaaaa
##uuuuuuuuugF
##llcccccc
##GGGGxVV
##QFQ
##ddddrrr
##QQQLLLs
##nnnnnnnnnnnnnn
##oHHHHHHII
##yyAff
##QQorrrrr
##obbbkkkQQ
##mmmmmmmmmmmmmmmmmmmmmmmmmmmmmmmmmmmmmmmmmmmmmmmmmmmmmmmmmmmmmnF
##rHHHHk
##ppppppppjjjj
##BBBBBBBBxF
##oHHHHIII
##BBBBBUU
##PPPPPQQ
##uuuuuuggggg
##yyyyyyyffiiii
##llccccccc
##zzzzOF
##uuuuugww
##KKzz
##lllTTTTTTTTTTTT
##PPPPQoVV
##mmmmmmmmmmmmmmmmmmmmmmmmnn
nnnnnn
##WWEEE
##nFttt
##JJJJxxV
##nCCCC
##KW
##EEF
##gggPP
##JJJU
##LLssF
##cccccccccccxxxx
##IbIIIII
##lccccc
##mmmmmmmmmmmmmmmmmmmnnnn
##KKKWWWWWWWW
##IbII
##zzzzddd
##gggww
##JJJJU
##KKKKKEEEEEEE
##JJJJJJJUUU
##eeeeeeeeeeeeeeeeeehhhhhh
##JUUUUUU
##mmM
##oHHHHHHHHk
##JJJJJxxV
##yyyyyyyyn
##MMMtttttttttttt
##LAAAAAAAAAfff
##KKKKKKKNN
##oVVVVVI
##QQQQQQLLLsssss
##wFs
##oooF
##mmmmmmmmmmmmmmmmmmmmmnnn
##xVVVVyy
##MMMnnnn
##mmmmmmmmmmmmmmmmmmmmmmmmnF
##CCCCCCCCTT
##SSSSSzzzzzzz
##aaaaaaaaaaaaaaaaaa
##bV
##MMMMMMMMMmmmmmmmmmmmmmmmmmmmmmmmmmmmmmmmm
##yyyyyppjj
##BBBBBBBBUUUUUU
##zzzzzOOOOOOOO
##eeeeeeeeeeeeeeehhhhhhh
##Sor
##eehhh
##SSSSSTTT
##zzzzzzzzzOOOOO
##zoF
##zzzzzd
##XXXXXXXXIIII
##FbII
##mmmmmmmmmmmmmmmmmmm
##lllllllTTTTT
##OOrrr
##GGGGGGGxxVV
##em
##QQQoobbbb
##KKKKKKKNNN
##Fbkkk
##QQVVV
##KKKKKKKKNNNN
##oHHHHHHIII
##mmmmmmmmmmmmmmmmmmmmmmmmmnn
##mmmmmmmmmmmnnnnnn
##PPPPPQ
##KKKKKKKNNNN
##MMMMMnnnn
##FHk
##zzzzzzzzzzOOO
##oorrAff
##ffSS
##MMMMMMtttttt
##JJJJJxVV
##eeeeehhh
##zzzzzzzzOOOOO
##zzzrrr
##rrrrKKKNNNN
##uuuggww
##AAAAAAAAAAAAA
##MMMMMMMMMMMnnn
##ffii
##BBUUUUUU
##yyyyyyyyf
##oVVVF
##eeehhh
##uuuuugwww
##llB
##MMMMMtttttt
##yyyypppjjj
##LAAAAAAAfff
##KKWWWWWWWWW
##ooVr
##yyyyfffiiiiii
##zzzzd
##SSSSSaaaaaaaaaaaaa
##RRCCCCCCC
##GGGGGGGGxxxx
##mmnnnnnnnnnn
##KKKKKKKEEEEEEE
##EEEEEErr
##Faaaaaaaaaa
##eeehh
##eeeeeeeeeeehhhhhhhh
##QQQoVVVyyy
##azz
##SSSaaaaaaaaaaaaa
##VVyyyyyyy
##wwwwppj
##obbbbbbbIIIII
##AAAgPP
##yyyypppjjjj
##JJxxxx
##MMMMMMMMnnnn
##oorAAAA
##HHHHHHHHHkk
##bbH
##QQQLLLLsssss
##ffNN
##llTTTTTTTTTTT
##WWEEEEEEE
##ffS
##zzzzdddd
##HHHHHHHI
##HHHHHHHHHf
##yyDDDDU
##XIIII
##VVVyDDD
##ccccccccccccxx
##zzzzdd
##LLAAAAAAAAAff
##ccccccccccccc
##yyyffiiiiii
##BBBBBxVV
##mmmmmmmmmmmmmmmmmm
##WWEEEEE
##fffK
##oorAAAAff
##AgPPP
##pppww
##sssuuuuuuuu
##SSSTTTTT
##uggw
##oVVkkkk
##eeeeeeeeeeeeeh
##QQQQQQLLLssss
##yDD
##TTTF
##Fbkk
##QQobbbbIII
##BBBUU
##tttttttn
##mmmmmmmmmmmmmmmmmmmmmmmmmmmmmmnF
##pkkQQQ
##GGGGGGxVV
##QoVVVyyyyy
mmmmmmmmmmmmmmmmmmmmmmmmmmmmm
##zzzdd
##Uxxx
##lllllTF
##KKNNNNNNNN
##KKKKKEEEE
##ooHHHHHHkk
##Fpppjjjj
##VVI
##WWEEEE
##xxxVVyy
##TTF
##mmmmmmmmnnnnnnn
##QVVVV
##Lr
##MMMMnnnn
##MMMnF
##KKKKKKKKKKKKKKKKKK
##zzzddddd
##obII
##oLLLLssss
##Mnnnnn
##HHHHHK
##GGGoVVVV
##OOOOOOOvv
##wjj
##AAgPPP
##gggj
##rrrKKKNNNN
##LLLsssgwwww
##yDDDiiii
##LLssssgggg
##ooobb
##TTooVV
##mnmnnn
##VVVyyyDDDD
##Ovv
##QQQQLLLLss
##RRRRRRRRRRRRR
##mmmmmmmmmmmmmmmnnnnn
##RRRRRRRRRCCCC
##BBBBBBBBBBBx
##XXXXXXIIII
##KKKKKKEEEE
##eeeett
##DDUUUUU
##Saaaaaaaaaaaaaaaa
##BBBBBBBBBBBxxxx
##hnnn
##oVVVyyyyyyyy
##oE
##RRRRRV
##AAAfP
##TQoo
##mmmmmmmmnFn
##kkj
##uuuuuuww
##QobbbbbbIII
##zOOOOOOOO
##EEEEEEEEEW
##Qdddd
##HHHHHHHHIIII
##Ftttttttt
##RQR
##Orrrr
##EEEWWW
##JJJJJJJJJJJJJJ
##oVVpp
##QQQoF
##obbbbbIF
##ooHHHHHHk
##EEEEEF
##QQQobbbbbbb
##yyypppjj
##KKKKKKKKEEEEEE
##rrrKKKNNNNNN
##MMMMMMMMMMMMMnn
##ooHHHHkk
##uuuggwwww
##cJ
##KKWWW
##LLsssgF
##wy
##MMMMMMMtttttttttttt
##mmmmmmmmmmmmmmmmmmmmmmmmmmmmmmmnF
##OOOOOOOOOvvv
##QobbbIIII
##zzOF
##TTTTTTooV
##JJJJJJJJJJJxx
##llllTF
##bbbbIF
##oVVVpppjj
##PPPQoVV
##LLssswwww
##XXF
##MMMMMMMMtttttttt
##KSSSaa
##xxLLssssss
##llUUU
##pgPPP
##OOOrr
##zzzzzzd
##TTTTooVV
##sssuuuuggg
##ppppF
##uuuuuuwwwwwww
##pwww
##Arr
##llllTTTTTTTTTTTTT
##LLsssuuuuuggg
##BBBBBBBBBBBBxx
##lSF
##mmmmnFnn
##LLssssuuuuuggg
##DDDiiiiiiii
##rrrrryff
##LLLsssswww
##llSSSS
##pppjwww
##BU
##uuuuuugwwwww
##Kn
##EEEEEEEWW
##zzorrr
##BBBxxVV
##LLLssswwwwww
##eeeeeehhh
##Qobbkkk
##pppjww
##mmmmmmmmmmmmmmmmmmmmmmnnn
##uuuuwF
##LLLLLs
##eeeeeeeeeeeehhhhhhhh
##IIIIIIyy
##WWWWWWWTTT
##yyyyyfffiiiiii
##Qddddd
##rrrAAff
##uuuuuuuuuujjj
##zzrrrrrr
##MMMttttttttttttt
##pkkQQ
##SSQoo
##EEEW
##ppppppjjjjjjj
##JUU
##GGo
##mmmmmmmmmmmmmmmmmmmmnnnn
##mmmmmmmmmmmmmmmmmmmmmmmmmmmmmmmmmn
##zzzzzzOOOOOOOO
##CPP
##MMMMMMMMMnnnn
##lllQQQ
##HHHHHHK
##QQoLLLsssss
##lccccccc
##GGoF
##QQQQQobbbb
##EEEEEEW
##oobbbbbbI
##GGooV
##ooVVVyyyyyyyy
##eeeeeeeeeeeeh
##PPPF
##JJJxxVV
##OOOOOOF
##oobbbbbbbbbb
##TG
##LAA
##eeeehhh
##LLLLLss
##DDDDiiiiiiii
##mmttt
##MMMMMttttttttttttttt
##Qdd
##DDsssss
##ttttnF
##pV
##lcccccc
##RRRF
##yyyyyyfffiiiii
##kQQQ
##lBBB
##rrrryyff
##GGGGGGGGUUU
##rrH
##mmmmmmmmmmmmmmmmmmmmmmmmmmmmmnF
##QQJJ
##XXXXXXXXXXIII
##LVVVy
##AAAAAAAAAAAAAfff
##eeeeeeeeeeeeeeeehhhhhhh
##zR
##rrKKNNNNN
##AAAAAAAAAAffff
##AfP
##BUUUUUU
##oobbbbbk
##yyyAfff
##yyyyyffiiiiiii
##KKvvvvv
##SSzzzzzzzzz
##JJJJJUUUUUUU
##SSSSSSSaaa
##sssgg
##XXXXk
##ttttttet
##SSSSSSzzz
##yyyyfffi
##XXXXXXXXXXII
##JJU
##SSSSGGGGG
##HHHHHHHHHHHk
##EEEWW
##orrrrff
##uuuuuuuuuuuuuugg
##mnmmnn
##eeeeeeeeeeeeeeeeeeeeeeeeeee
##ooVVyyyyyyyy
##WWWWWWTTT
##kR
##QQooF
##ttttet
##yyyyyppjjj
##KOOOOOOOO
##JJJJUUUUUUU
##kkSSSSaaa
##LLsssuuuuggg
##KSSSaaa
##zzdddd
##DDU
##BBBBU
##mmmhh
##mmmmmmmmmmmmmmmmmmmmmmmmmmmmnF
##dx
##ppjFj
##bbbIF
##JJJxxxx
##LLLLssssggg
##BBBBBUUUUUUU
##ppjjF
##gFwww
##QQLLLLsssss
##lllQo
##eeeeeeeeeehhhh
##FSaaa
##MMMMMMtttttttttttttt
##BBBBBU
##Qdddddd
##yyyyyDDDDiiiii
##BBBxxV
##zzzzzdd
##SSSGGGG
##ggggQQQ
##oobbbbbbbbbbbb
##zzzzzzzzzzO
##yDDDiii
##mmmmmmmmmmmmmmmmmmmmmmmmmmmmmmmmmmn
##QQz
##rrrry
##sssuuuuuggg
##qqqC
##QQVVVV
##KKO
##BBBBBBUU
##zzF
##zzzzzOF
##AAAAAAwww
##RVVVV
##EEEEEEVV
##yDDDDiiiiii
##QQoVVVyyy
##mttttttt
##eeeeeeeeeeeeeeeeeeehhhhh
yy
##uuuuuuuuuuugggg
##oLLLLss
##QTT
##kkvv
##Gc
##QQQQooVV
##HHHHHfk
##XXXF
##mmmmmmmmmmmmnnnnnn
##BBBBBBUUUUUUU
##SSSl
##SCC
##Rx
##ffiiiiii
##yyyyDD
##Fwwww
##KKKKz
##QooVkkk
##lUUUU
##EEEEEEEEWW
##LLsssswwww
##tttttet
##eeeeeeehhh
##oorrrrr
##mmmmmmmmmnFn
##AAAAfPPP
##VVVyyyyyyy
##ddddddddddddddddddd
##EErrrrr
##GGooVVVV
##Iyyy
##AAgPP
##EEEWWWW
##EEEEEEWW
##FbbIII
##JJJJJJJJJJxxxx
##sssuuuggg
##RRRRRRRRRCCCCCC
##Saaaaaaaaaaaaaa
##XXXXXXXXXXXXX
##FNNNNN
##lllllF
##LoVV
##eeeeen
##pppk
##lTTTTTTTTTTT
##JJJJJU
##mmmmmmmmmmmmmmmmmmmmmmmmmmnn
##eeeeehh
##oT
##RRVVVV
##BBBBBBBBBBBBBBBBB
##rFrr
##EEEEEErrr
##mtttttttt
##zzddd
##ooLLLsss
##FbIIII
##BBxxxx
##SSSSGGGG
##oorAAA
##Vkkk
##eeeeeehhhhhnnn
##oobbbbbkPPP
##rrrryyfff
##enn
##mmmmmmmnnnnnnnn
##KKKKKKKKEEEEE
##LLsssssuuuggg
##SSSGGGGGGG
##uuuujjjjj
##drrrrrr
##WEEEEEEEEE
##pppw
##GGGooVV
##oorrAAAff
##ooFV
##AAAAPPP
##pppjjQQQ
##kkSSSSSaaaaaaa
##nCCCCCCC
##qx
##EEWWWWWWW
##obbbIF
##ddddr
##fffiiiii
##AAAAAAAww
##lllllTTTTTTTTTTTTT
##WWEEEEEEEE
##AAAAfPP
##eeeeeeet
##lQoVV
##GGc
##ggjj
##eeeeeeeeeeeeeeeeeeehhhhhh
##bbbbbIF
##nnnnnnCCCC
##ooVkkkQQ
##zzzzzddd
##bbbbbbbbbIIII
##SSSSGGGGGGG
##QQQQQoVVVV
##HHHHHHkkk
##lllUUU
##FKKKKK
##bHH
##fffWWWW
##rrrrrKKKNNNN
##uuuuuuuuug
##yyyyyF
##ooLLLsssss
##mnmmmmn
##oVVVVyyyyyy
##SSor
##mmmmmmmmmmmmmmmmmmmmmmmnnn
##GGGGGGGGGGxxx
##Errrr
##qCC
##qqC
##Vyyyyyyy
##DFDD
##uuw
##GGGGGGGGUU
##llllTToo
##QQQx
##eeeeeeeeeeeeeeeeeeehhhh
##MMMMMMMtttttt
##yyffiiii
##HHHHHHHHHII
##rHHHHHHkk
##wwwwyyy
##pppjF
##OOOOOOOOOOvvvvv
##LLLssssuuuuuuggg
##lllllllTTTTTT
##obkk
##CCCCCCCTT
##nnnnCC
##SSSSF
##STTTTTT
##Kzzz
##PPQQ
##yyyyAff
##BBBBUUUUUUU
##GGGGGGxxxx
##KKKKKKKEEEE
##nnnnnCCC
##OOOOOOOOvvvvvvv
##RRRRRRRRCC
##XXXXXXXkk
##LLLssssugggg
##ssgF
##Qoobbbbbb
##oVVVk
##SSSSSzo
##Ok
##ooHHHHHHH
##mmnmnn
##fffWWW
##HHHHHF
##DDDDDiiiiiii
##yyyyyyyyyyff
##mmmmmmmmmmmmmmmmmmmmmnnnn
##TooVV
##pkkkk
##yyppjjj
##SSSzzzzzzzzz
##kkSSSSaa
##mmmmmmmmmmmmmmmmmmmmmmmmmmmnn
##QobbbbbbIIII
##BBBBBBBBBUUUUU
##eeeehh
##nnnnnF
##ooVVVpp
##ddddddrr
##KSSSa
##MMMMttttttttttttttt
##mmhhh
##zoorrr
##xxVVVyyyyy
##nnnnnnCCCCC
##mmmmmmmmmmnFn
##zOOOOOOO
##KKKKEEEE
##yyAfff
##PPQ
##TTTTF
##QQoL
##SSTTTTTT
##BBBJ
##llllFl
##rrrKKNNN
##TTTTTTTooV
##AAAAgPP
##obbbbbbbbkk
##KOOO
##Hn
##TTTTTooo
##Kvvv
##mmmme
##MMnF
##oobF
##MMMMMMMttttttttttttt
##fffWWWWW
##uuuuuuuuuuuuuuggg
ttttttttt
##Qddd
##XI
##uuuuuuuuuujj
##KKOO
##zzzrr
##KKKKKKKKEEEEEEE
##ppppjwww
##LLLsssswwwwww
##AAAAAAAF
##GGGGGGGGc
##ppppjjjQQ
##MMMMMMMMMMMMmmmmmmmmmmmmmmmmmmmmmmmmmmmmmmmm
##fNNN
##Fnt
##AAAAAAAAAAAAf
##AAAgg
##dddddddF
##uuuuuuugwwww
##gwgg
##zzzd
##BBBBBBBxxVV
##EEEEErrrr
##zzzzzzzOOOOOOO
##QQoVVVVVV
##oobbF
##QUU
##zFS
##yyyyffiiiiiii
##MMq
##TTTTTooV
##llllllTTTTTTTTTTT
##sssssuggg
##yypppjjj
##ttet
##Err
##zzzzddddd
##ooVVkkkk
##zzzzzzzzzzOOOO
##BBBU
##mmmmmmmmmnnnnnnn
##yyyp
##JJJJJJJJxF
##DDDDUUUU
##wwwwwpppjjj
##llllccccccccc
##mmmmmnFnn
##BUU
##bbF
##LLAAAAAAAff
##KKKKEEEEEEE
##bbbbbIIIIII
##yppjj
##llllUU
##oHHHII
##BBBBBBBxxV
##uuuggwww
##QQobbbbII
##ppppppppp
##TTTTooV
##AAAPPPPP
##LVVVyy
##kkkS
##RRRRRRRRC
##tttttttet
##yyyDDDDiiiiiii
##pppjP
##obbbF
##nnnCC
##UQQQQ
##wwwwwppj
##MMMMMMMMMMMMnF
##MMMMtttttt
##QEEEEEEEEEE
##eeeeeeeehhh
##oLLs
##ppjjjjii
##orF
##EEEEEEF
##obbbbbbbI
##yyyyyDDDiiiii
##yyyynn
##rrrrrF
##MMMMMtttttttttttttttt
##IkPPPP
##DDDDss
##gFww
##HHHfk
##SSSSSSSaaaa
##MnF
##SSaaaaaaaaaaaaaa
##JJJJJJxxV
##pppjjjji
##tttet
##VVVI
##QQQoor
##ppFjjjj
##AAAAAAAAAAAAAA
##SSSSaaaaaaaaaaaaaa
##QQQorrrr
##MMMMMMttttt
##LVVVV
##uuuuuugww
##MMMMMMMMttttttttt
##mMM
##JJJJJJUUUUUUU
##mmmmmt
##eeeeeeeeeeeeeehhhhh
##hhhnnCCCCC
##mmmmnnnnnnnnn
##JJJJJJUU
##EEEEEEEEEEEEEEEEEEEEEE
##QQobbbIII
##yyyyyDDDDiii
##VVVyppjj
##HHHHK
##eeeeeeeeeeeeeeeeehhhhhhh
##RI
##Ry
##Errr
##llllllcc
##MMMMMMMMMMMMMMMn
##mmmee
##TTTTTTTTTTTTTTTTTTTT
##oVVyyyyyyy
##mmnFnnn
##yyyyyDDDDi
##bbbbbbbbbIII
##zza
##PPF
##AAAAPPPP
##fffWWWWWW
##bbbbIIIIII
##sssgggg
##EEEEEEErr
##oVVVppp
##LLsssuuuuuuggg
##pppjjQQ
##iiWWWW
##rrrAff
##yDDDDDi
##QLLLL
##llBB
##yyypppjjjjj
##mmmmmmmmmmmmmmmmmmmmmmmmmmmmmmmmmmmn
##QQQQQLLLLss
##cccccccxF
##uuuuggww
##kkSSSSaaaa
##KKW
##HHHHfk
##LLsssssgg
##qqqqqqqTTT
##LLLsssssuuggg
##QoVVkk
##oVVVpppjjj
##Mj
##CP
##nnnnnCCCCCC
##lllllTToo
##TTTTTooVV
##OOOOOOOOOOvvvv
##MMMMMMMMtttttttttt
##mmmtt
##LLAAAAAAAAAAff
##yyDDDDDiiii
##SSaaaaaaaaaaaaaaaa
##gwwrr
##KKKWWWW
##HHHHHHfk
##yyyyA
##LLLssssuugggg
##EEEEEWW
##sssuuggg
##BBBBBBBBBBBBBxxx
##MMMMMMMMMMnnnn
##cccccccccccx
##SSQ
##bbbbbkkkk
##rKKNNN
##ppppppppjjjjj
##LLLssssuugg
##XXXXXXXXXIIII
##AfPPPPP
##JJJxxV
##QorF
##Fyyyn
##SSorr
##EEEEEVV
##rrrryff
##sssuuuuuuggg
##MMMMMMMF
##GGGoo
##mmmmmmmmmmmmmnnnnnn
##ppjjjjQQ
##ffPl
##eeeeeeeeeeeeeeeeeeeehhhhhh
##EEErrrrr
##MMMMMMMMMMmn
##QQQQooVVV
##mmmmmmnFnn
##yyyyyDDDi
##JJxVV
##DDiiiiii
##yfF
##up
##LLLsFs
##zrrrrrrr
##DDDDj
##BBBBBBU
##LLLsFss
##yyyyyfffi
##yyyyyyyffiiiii
##FbbII
##KWW
##fffNN
##eeeeeehh
##VVVyDDDDD
##FOOO
##oobbIIIII
##oVVVppjj
##pppjFj
##TTTTTTTTTToo
##ffNNN
##rrrrAff
##yAff
##rrrKKNNNNNN
##QQQooo
##LLLsssuuggg
##lllllToo
##ccccccxxxxx
##Sorr
##RRRRVVV
##LLLssssugg
##mmmmmmmmmmmmmmmmmmmmmmnnnn
##AAAfPPPP
##lllFll
##LAAAAAAAAAAfff
mn
##Sorrr
##QooF
##oVVVppppjj
##pppjjjjQQQQ
##yyDDDiiiiii
##zzzzzzOF
##tee
##LLLsssuuuuuuuggg
##ooVVpkk
##ccxxxxx
##SSSSSSzzzz
##etttttt
##SSSSSSaaaaaaaaaaaa
##rrHH
##ccccccccccccxxxx
##QRRR
##pR
##obbbbIk
##Fppp
##eeeeeeeeeeeeeeeh
##Fbbkk
##ooHHHHII
##oVVkkkQQ
##LLssgF
##mmmmmmmmmmmmmmmmmmmmmmmmmmmmmmmmmmmmmmmmmmmmmmmmmmmmmmmmmmmmmmmF
##Fnff
##QoVVkkk
##QLLLsssggg
##xFBx
##rrKKKNNNN
##XXI
##RRRRRVV
##zzzzzzdd
##oVVk
##MMMtttttttttttttt
##KKKKKKKKN
##GGGGGGGGxF
##lSSSSSSS
##EEEWWWWW
##qqqqqqqqTTT
##HHHHHkllll
##aaaaaaaaaaaaaaaaaaa
##yDDDUU
##DDDj
##EEEEWW
##QQQQoF
##RRRRRRRRCCCCCCC
##yDDDU
##Faaaaaaaaaaa
##zzddddd
##zzzzzzzd
##Qobbbbbkkk
##JJJJJJJJJJJx
##zaaa
##BC
##qqqqqqqTTTT
##yyDDDDDi
##GGGGGGGGGxxxx
##JJJJJJJJJJJJJJJ
##rrrrKKNNN
##uuuuuuuujjjj
##JJJUUUUUUU
##RCCCCCCCC
##ox
##zzzzzzzzOOOOOO
##ppjkk
##MMMMMMMMMmn
##Fynnn
##Xbb
##ssssuuggg
##yyyfffi
##mmmmmmmmmmmmmmmmmmmmmmmmmmmmmmmmmmmmn
##QFQQ
##eeeeeeeeeeeeehhhhhhhh
##JJJJJJJJJJJJxxx
##ryy
##yyDDDUU
##DDDsssss
##oVVVyyyDDD
##QQobbbkkk
##wFww
##kkF
##MMMMMttttt
##pjjP
##GGGGGGGGGUUU
##yyDDDU
##rKKKNNNN
##eeeeeeeeeeeeeehhhhhhhh
##SK
##BBF
##AAAgPPP
##OOOVV
##MMMMMMttttttttttttttt
##Issssss
##eeettt
##oVVpkkk
##yrF
##Aw
##ffffi
##oobbbbkkkk
##VVVyyppjj
##HHHHHHHHHIIII
##MMMMMMMMMMMMMMMMMMMMM
##QQoLLLsss
##mmmmmh
##FSaaaa
##EEEEEEEVV
##mmmmmmmmmmmmmmmmmmmmmmmmmmmmnn
##pppppjjjjjjjj
##Cn
##SSoor
##ssssuuuuggg
##LLLLsssgggg
##iiWWWWW
##KKKKKKKNNNNN
##cT
##ooVVk
##yyyyyD
##GGGooVVV
##BBBBBBBBBBBBxxxx
##oq
##JJJJF
##EEEEEW
##rrryy
##OOOOOOOOOOvvvvvv
##ttee
##EEEEEEEF
##zzzF
##WWWEE
##tttttttttet
##Szzzzzzzzz
##OOOOVV
##QQQQQQoo
##yyyfffiiiiii
##TTooVVV
##EEEEW
##eeeeeeeeeeeeeeh
##qqCC
##KKKKKF
##Mmn
##mmmmmmmmmnnnnnnnn
##GGGGGGGGUUUU
##VI
##KKKzz
##orrrrrff
##pgP
##BBUU
##gPPPPP
##HHHHHHIIIII
##ppppjjjQQQ
##SSSSaaaaaaaaaaaaaaaa
##bbbF
##LLLssssgF
##WWWWWWTTTT
##obbbkkkQQQQ
##yyyyyfF
##ssssuuuggg
##rrrKNNNN
##zzzzzzzOOOOOOOO
##ooHHHHHHHk
##FMM
##Ayy
##DDj
##SSSSSaaaaaaaaaaaaaa
##bbbbbbIIIIII
##eeeeeeehh
##yyDDDDDiii
##FQo
##KKKKKKEEEEEEEE
##mmmmmmmmmmmmmmmmm
##ehhhhhhhhhh
##KKKKKKKEEEEEEEE
##nnf
##ggQQQQ
##SSSSSSzzzzz
##JF
##TTTooV
##LLsssssuuuuuuuu
##dddddddddddddddddddd
##EEEEEr
##BBBBBBBBBxF
##Lsssggg
##lllQQQQ
##ssssuuuuuuuu
##JJJJJJJJUUUUUU
##Fnnnnnnnn
##mmeee
##bbbbbbbbIIIII
##XXXXF
##bbbIIIIII
##mmmmmmmmmmmmmmnnnnnn
##ppjFjj
##Fnf
##rrrAAAff
##LLsssgggg
##oobbbbbbbbIII
##yyyyyDDDDii
##Errrrr
##oobbbIIssss
##yyDDDDDii
##AAgg
##nnnnCCCCCCC
##pppjFjj
##uuggw
##lllllllTTTTTTT
##BBBBBBBBBUUUU
##ooFVV
##bIIIIII
##oVVVp
##ttttttttet
##rrrrrrKKKNNNNNN
##llQooVV
##rrKKKNNNNN
##oVkkkQQ
##KKKKNNNNNNNNN
##yyyyDDDDiiiiiii
##Qxx
##rrV
##LLLsssssuuuuuuuu
##ttttttttttttttttttttt
##bbbbbbkkSSSS
##LAAAAAAfff
##KKKEEEEEE
##KOOOOOOO
##nFtttt
##IIIIIIIIIIII
##QobbbbbbII
##zooo
##lllTTTTTTTTTTTTT
##kkkQQQQQ
##AAAAAAAAAAAAAAAff
##ooVVVVyyyyy
##eeeeeeeehhhhhnnn
##eeeeeeeeeeeeeeeeeeeeeeeeeeeee
##mmmmmmmmmmmmmmmmmmmmmmmmmmmmmnn
##pgk
##KSSSaaaa
##rKKNNNNN
##gjjj
##Qddddddd
##llllToo
##ooVVF
##rfff
##wwwwwpjj
##AAffP
##BBBBBBBBUUU
##qqqqqqqqTTTT
##ppjjP
##LLLssssswwww
##WWWWWWWTTTT
##oorrrff
##MMMMMMMMMMMMnnn
##HHHHHHHK
##lJJJ
##bbbH
##rrrrryyff
##uuuw
##mmmmmmmmmmmmmmmmmmmmmmmmmmmmmmmmmmmmmn
##ppjR
##wFwww
##DDDDDDi
##JBB
##LLsssuuuuuuuu
##rK
##mmnmmmn
##QQLLLssssss
##QG
##MMMMtttttttttttttttt
##BBBBBBBUUUUUUU
##KKvvvv
##oVkkkQQQQ
##JJJJJJJxxVV
##yM
##pppFjj
##yyyyyyyyyn
##SN
##MMMMMMMMttttttttttt
##oobbbIF
##mmtttt
##FbbIIII
##mmmmmmmmmmmmmmmmmmmmmmmnnnn
##sssssuuggg
##LLsswwww
##pjkk
##zzd
##QQobbbII
##VVVypppjjj
##uggP
##mmmmmmmmmmnnnnnnn
##ddddNN
##eeeeeen
##oobbbbbbkPPP
##mnmnnnn
##mmmmmmmmmmmmmmmmmnnnnn
##LLssssuuuuuuggg
##QQobbbbIIII
##Qobbbbbbkk
##ppjwww
##ppppjjjQ
##AAPPPQ
##mmmmmmmmmmmnFn
##KKOOOOOOOO
##LLLssssgwwww
##yyyyyyffiiiiiii
##uuuuuugwww
##HHfk
##dddddr
##FVyyy
##ggk
##qqqqC
##pA
##zzdd
##mnnnCCCCC
##uuuuuuuuuug
##mmmmmmmmmmmmmmmmnnnnn
##QQQQQQLLLLssss
##FTTTTTTTTT
##ffPll
##Okvvv
##rrKKNNN
##rrrrKNNNN
##MMMMMMMMMMMmn
##ooVVpp
##BBBBBBBBBBBBx
##LLssswwwww
##mmmnnnnnnnnnn
##KOOOOOO
##pppwww
##cccccccxxVV
##KOOOO
##JJB
##TTTTTTTTooV
##EEEEEEEEEEW
##zorrrr
##oobbbbbbbIIIII
##SSSaaaaaaaaaaaaaa
##XXXXXIIII
##bbbbbbbIIIIII
##GGGGxF
##FSaaaaa
##SSSSTTTTT
##LLLssssuuuugg
##LLLssgwwww
##obbbIk
##kkSSSSa
##AAs
##lllccccccxx
##VVVpkk
##QC
##BBBUUUUUUU
##obbbbbbbbIIIII
##uuuuuuuggggg
##oLAAAAA
##TTooV
##zzzOOOOvvv
##oVVVyyyDDDD
##rrrrrKKKNNNNNNN
##LLLswwww
##QQQoVVVVyy
##aN
##Gooo
##fffN
##LLsssswwwww
##yyyyyyppjj
##llllllccc
##obbbbbbkPP
##zzzzzzzzzzzOO
##hhhnnCCCC
##SSSTTTTTT
##eeeeeehhhhhhhhh
##obbbbbbbkPPP
##Okk
##mmmmmmmmmmmmnFn
##EEEEEEoVVVV
##mnnmnn
##SSSSSTTTT
##yyyyyyfffii
##zzzzzzzzzzOOOOO
##Fyynn
##cccccccxxxxx
##mmmmnmn
##uuuuuuuww
##RRRRRRRRRCCC
##BBBBBBBBBBBBBBBBBB
##yyyyyyyffiiiiii
##QQQQQoVVV
##ppppppppjjj
##ffPN
##oobbbbbbbbIIII
##gFwwww
##eeeeeeeeeeeeeeeeeehhhhhhh
##oHH
##lllQooVV
##qqqqqqqqTTTTT
##SQorr
##WWWWE
##PPPPorr
##KKKEEEEE
##oVVVpppppp
##zzzzzzzzzzzzzzzz
##LLsssuuuggg
##yyyyyDDDiii
##mttttttttt
##LLLLsggg
##DDDDDUU
##JBJ
##Okvv
##QQbbbb
##PPPPF
##WWWWWWWWT
##rryy
##AAAPP
##KKKKKKKKNN
##uuuuugggllll
##obbbbIIssss
##SSSSSaaaaaaaaaaaaaaaa
##eeeeeeeeeeeehhhh
##FGGGG
##kkkQF
##lllccccccccc
##mnnnCCCC
##yyyyyDDDDiiiiii
##wyy
##lQooVV
##BBU
##llQQQo
##rrrrrrKKNNNNN
##oorF
##yyyyyDDDiiiiii
##QooVVVVyy
##PPPPQo
##JJJJJJJJJJJxxxx
##AAww
##GGGGGcc
##QorV
##obbbbkkkQQ
##eeeeehF
##llTTTTTTTTTTTT
##ggF
##ooVVyyDDDD
##orrrrrrr
##EEEEr
##PPPor
##AAAAAAAAfF
##AAAy
##llJJ
##LLLAAAA
##pppkk
##GGGGGGxVVV
##KKKKKKKKKKKKKKKKKKK
##MMMMMMtttttttttttttttt
##qqqqqqqTTTTT
##SSoorr
##WWEEEEEEEEE
##mmmnFnnn
##Fbbkkk
##lQQoVVV
##bbIF
##MMMMMMMMttttttt
##zzzrrrr
##ppjjk
##JJJJJJJJJUUUU
##Fppjjjjj
##MMMttttttt
##ppjjQ
mmmmmmmmmmmmmmmmmmmmmmmmmmmmmmmmmmmmmmmmmmmmm
##pDDDiiii
##lTTTTTTTTTTTT
##yyyyyyyfffiiii
##hhhnnCCCCCC
##STTTTTTT
##An
##rrryyff
##yDDDDUU
##QLLLssssggg
##fNN
##RQQ
##LLLssssuuugggg
##uuuggw
##tnnnn
##LLAAAAAAff
##ppppsss
##QQoLLsssss
##obbbbbIIIIII
##mmmmmmmnFnn
##BBBBBBBUU
##IIIssssss
##ooVVVVVII
##eeeeeeeehh
##eeeeeehhhhhnnnn
##SSSSSSoo
##ppjllll
##MMMMMMMMmmmmmmmmmmmmmmmmmmmmmmmmmmmmmmmm
##OOOV
##yyyDDDDDiiii
##lllllU
##QQobbbbkk
##oVVVpk
##rrrrryyfff
##zzzzzdddd
##SSSSSSSaaaaa
##eFt
##eeeeeeeeeeeeeeeeeeeeehhhhhh
##yDDDDDiii
##ooHHHHIII
##Fjjjjjj
##EEEEWWW
##uuuuugw
##yyyyyyyyyffff
##ApPPP
##OOkvv
##ggggP
##MMMMMMMttttt
##KSSSaaaaa
##SSorrr
##QooVVVyyyy
##oHHHHHHHIII
##tttnn
##yDDDiiiii
##zOF
##rrryyyff
##KKKKKEEEEEEEE
##eetttt
##eeeeeehhhhhnn
##XXXXXXXXXXI
##GGGGGxVVV
##oVVVVpp
##ssssuggg
##XXIIII
##bbbbbbbbbbbb
##sp
##cB
##ppjjww
##GGGGGxxV
##XXXXXXD
##uuuuggwwww
##uuuuuuuwwwwwww
##lllllllcccccccc
##mmmmmmmmmmmmmmmmmmnnnnn
##DDDDUUUUU
##cccccxxVVV
##nmn
##KKOOOO
##OOOOOOOOOvvvvvvv
##yyyyyDDDii
##wwwpppjjj
##eeeF
##ddddddr
##WWWWWWWWWWWW
##GGGGGGxxVVV
##rrrrryfff
##TTTooVVV
##mmmmmmmmmmmmmnFn
##MMMMMFn
##obbbIIssss
##VVVyypppjjjj
##rrHHH
##FKNN
##Kd
##GGGGGGxxV
##JJJJJJU
##oobbbbIF
##EEEEEEr
##JJJJJJJJJUUUUU
##KOOOOO
##ttttttttttet
##oVVVppppjjj
##eeeeeeeeehhh
##bIF
##AAAAAfPPP
##mmnnmn
##MI
##LAAAAAAAAAAAAff
##obbbbbbbkkk
##DDFDD
##QQLLLsssggg
##ttttttttn
##nnnnnnCCC
##pppjjww
##mmmmmmmmmmmmmmmmmmmmmmmmmnnn
##QoVVVVyyyy
##JJJJJJJJJxF
##rrrryyyff
##wwwppjjj
##oFV
##yyyyyyfffff
##mmmmmmmmmmmmmmmnnnnnn
##uuuuuuugww
##kkkQrrr
##rrrryyyfff
##VVpkk
##eeeeeehhhhnn
##QQoVVVVyyy
##SSC
##eeeeF
##ssssggg
##kkSSSSaaaaa
##GGGGGGGGGUU
##Qq
##mmmmmmmmmmmmmmmmmmmmmmmmmmnnn
##VVVyyppjjj
##PPPPor
##cxxxxx
##dddddNN
nt
##wMMMMMMMMMM
##bbbbbbbbk
##nnmn
##LLssssswwww
##WEEEEEEEEEE
##MMMMMMMMmn
##EEEEEoVVVV
##GGGGGGGUUU
##yyfffii
##oLAAAA
##KKKKKKKKKEEEEEE
##nmnn
##FooVV
##KKzzz
##GGGGxxVV
##QoVkkk
##yyDDDDiiiiiii
##IbIIIIII
##Hfk
##SSll
##LoV
##mmttttt
##BBxVV
##eeeehhhhhnnn
##qqqF
nnnnnnn
##Asssss
##PPPorrr
##VVVyyyDDD
##bbIIIIII
##HHHHHIIIII
##EEEEEEEEEWW
##yyyyDDDiiiiiii
##AAAAAAAAAAAAAAA
##dddO
##cccccxxxxx
##mnFnnnn
##oRR
##MMMMFn
##qqqqqqqqTTTTTT
##QQQQQLLLLsssss
##eeeeeehF
##MMMMMMMtttttttttttttt
##LLVVV
##GGGGcc
##KKKOO
##obbbbbkkkk
##DDDDDDii
##fWWWWW
##AAPPPPQ
##RRRRF
##HHHHHHF
##pgjj
##uuuuuuugggllll
##Saaaaaaaaaaaaaaa
##nnCCCCCCCC
##QQQQoV
##ooVkkkQQQQ
##QB
##rII
##MMRR
##QQQobbbbIII
##obbbbbkPP
##Gcc
##ffPPPP
##WWWWWWTTTTT
##yDDDDDii
##gFj
##xFBxx
##KKKKKKKKEEEEEEEE
##VVVypppjjjj
##ggwrr
##LAAAAAff
##QQQLLL
##KKKO
##PPPPPll
##dddddddrr
##CCCCCCCCCT
##MMMy
##LLsssssugg
##MMMMMMMMMMmmn
##QQEE
##yyyyyyyyyyfff
##QFl
mmmmmmmmmmmmmmmmmmmmmmmmmmmmmmmmmmmmmmmmm
##AAAAfP
##ppjjjii
##mmmmmmmmmmmmmmmmmmmmmmmmmmmmmmnn
##QLLLssssss
##pppFjjj
##VVVyypppjjj
##AAwww
##Qorrrrrr
##KKKKKKKKEEEE
##mmmmmnnnnnnnnn
##lllllTTToo
##Fiiiiii
##yyyyAfff
##VVVkk
##bbbbbbIF
##uuuuuuugwwwww
##zzzzOOOOOOOOO
##eeeeeeeeeeeeeeeehhhhh
##orrAAff
##EEEEEEEEEEEEEEEEEEEEEEE
##lFl
##llFlll
##eeeeeeeehF
##oHHHHHHHII
##zd
##tet
##uuuuuuuuj
##mmmnmmn
##obbkkkQQ
##uuuugggllll
##OOOOvvvvvvvv
##eeeeeeeeeeeeeeeeeeeeehhhhh
##SSSSaaaaaaaaaaaaaaa
##lllllTTTTTTTTTTTTTT
##zzzzzzzOF
##QooVkk
##Ra
##Qbbbb
##XXXXXXXD
##fC
##Er
##LLLLL
##lllllccccccccc
##qqqqqqqTT
##DDDDDDiii
##yyyDDDDDiii
##ttnnn
##rrO
##BBBBBBBBxxVV
##BBBBBBBBBUUUUUU
##Rr
##GGGGGGGUU
##qCCC
##bbbIIssss
##rrrrrrKKNNNNNN
##xxFVV
##KKvvvvvv
##mmmmmmmmnnnnnnnn
##eeeeeeeehhhhhnn
##LLsF
##uuwwwwwppjj
##QLLV
##sssuggg
##bHHH
##ffWWWWW
##ooHHH
##QQLLLssssggg
##llllllTTTTTTTTTTTT
##QobbIII
##OOOOOOOOOOOOOOOOO
##ooVVVk
##oVVVVI
##GGGcc
##HHHHHHkllll
##EEEoVV
##orrAAAff
##oobI
##For
##KKOOOOO
##EEEErrrrr
##meeeee
##wwwwpjj
##PPPPlll
##PPPPQLLLsss
##EEEEEoVV
##dddrrrr
##wrrr
##ffWWWW
##eeeeeeeehhhhhnnnn
##yyyyyppjjjj
##mmmmmmmmmmmmmmmmmmmmmmmmnnn
##JJJJJJJJUUU
##QQoLLssss
##BBBBBBxVV
##rrHHHH
##ooHHHHHk
##GGGGxxx
##yyyppjjjjj
##SSSSSSTT
##yDDDDDiiii
##QQobbbbbbbb
##LLLssssuuuuugg
##pppjjjjQQQ
##LAAAAAAAAA
##PPll
##VVVyyyyyyyy
##yyfffiiiii
##yynnn
##eeeeeehhhhnnn
##zzzzzzzzzzzOOO
##eeeehF
##nnnnnCC
##bbbkkkQQQQ
##uuuuujjjjj
##rKKKNNNNN
##WWWWWWWTTTTT
##oobbIIssss
##RMMMMMMMMM
##UQoo
##yyyypppjj
##mmmmme
##QEEEEEEEEEEE
##JJJJxxr
##EEEr
##MMMMMMMMMMMnnnn
##uuuuugggll
##AAAssss
##GGGGGGF
##yyyyyffii
##QQQLLLssssss
##kkkSSSSaa
##KKOOOOOO
##ffN
##fWWWW
##rrHHHHH
##JJxxVV
##obbbbbbbbbbb
##mmmmmmmmmmmmmmmmmmmmmmmmmmmnnn
##lllllllTTTTTTTT
##bbbbbbbbbkkk
##rrAAAff
##VVVVyyyyyy
##yyyyffii
##mnnCCCCC
##WN
##yyyyynn
##mnnnnCCCC
##Fvvvvv
##yyyypppjjjjj
##AAAr
##cccxxxxx
##tnFn
##lQoVVV
##QQobbbkk
##pDDDiii
##QQT
##ffllll
##kkPPP
##mnnnnnnnnnnnn
##RM
##eeeeeeeehhhhnn
##OOOkvv
##CCCCCCoo
##uuugw
##oVVVppj
##BBBBBxxxV
##mnnCCCC
##BBBBBBBBBBBBBxx
##Fpppjj
##ddx
##KKKKKKKNNNNNN
##KKKEEEEEEE
##bbbbbbbbbII
##EEEEoVV
##uuuuuggglll
##ccccxxVVV
##eeeeeeeeeeeeeeeeeh
##LLLsssuuuuugg
##Rk
##ccccxxV
##LLssssuugggg
##TTTTTTooo
##eeeeeeeeeehhh
##cccccxxV
##ooVVVVII
##uuuuuugggllll
##Soor
##ddrrrrr
##JJJJJJJUUUUUUU
##IbI
##mmmmmmmmmmmnnnnnnn
##bbbbbbbbbbkk
##mmmmmmmmmmmmmmnFn
##oVVVVpkk
##sssssuuuggg
##oobbbbbIF
##RoVV
##LLLsssuuuuuugg
##ddddddddF
##mmmmmmmmmmmmmmmmmmmmmmmmmmmmmmmmmmmmmmn
##OOOvvvvvvvv
##Qcc
##TooVVV
##OOOOv
##yyyyypppjjj
##QQQQQQF
##QQobbbbkkk
##obbbbkkkQQQQ
##mnnmmn
##LLLsswF
##yyyDDDiiiiiii
##FBBB
##lQQoVV
##KKOOOOOOO
##DDsss
##rrrryfff
##HHHK
##HHHHHHHIIIII
##AAssss
##pppPP
##qqqqqqTTTT
##FooV
##uuuuuugw
##LLLssgggP
##WWWWWWWWTT
##LLFLssss
##TGG
##zzoor
##SSSQoo
##SSSaaaaaaaaaaaaaaaa
##tttee
##LLssssugggg
##KKKKKKKKKEEEEEEE
##rrryyyfff
##kkSSSSSaaaaaaaa
##yF
##eF
##lFll
##OOOOV
##obbbbbbbk
##pjjjjjj
##rrrrrrKKKNNNNN
##nnnnC
##uugw
##MMMMMMMMtttttt
##eeeeeeehhhhhhhhh
##QoVVVVVyy
##QQQoVVVVVV
##mhhhhh
##UQQQ
##UUUUUUUUUU
##rrfff
##VVVyppjjj
##dddddddr
##yyffiiiii
##yyDDDDUU
##eeeeehhhhhhhhh
##MMMMttttt
##nnnnnnnnnnnnnnn
##eeeeeeeeehh
##QJJJJ
##llllTTToo
##oobbbbbbbbII
##QoLV
##KKKKKKKKNNN
##EEEEEEWWW
##dddNN
##MMnnnnn
##zzzdddddd
##fkP
##bbbkkkQQ
##LLLssssgwww
##LLLssssuuugg
##lllcccccccxx
##ppppjjjjQQ
##EEEEEEEEF
##Fyfff
##AAAAAAAAAAAffff
##KKKKKKNNNNNNNN
##GGGGGGcc
##iiiWWWW
##LLLssssswwwww
##VVkkk
##wwwwwwyy
##qqqqqqqqqTTTTT
##uuwwwwppjj
##ugw
##QQQQooV
##XXXXIIII
##yyyyyyyyyf
##TooV
##AAAAAfPP
##obbbbbbIF
##uuuwwwwwppjj
##KKOOO
##kkkSSSSaaa
##orHHHHHHHH
##qqqqqqqqqTTTT
##AArr
##iiiiiiiiiiii
##Qobbbkkkk
##EEEEEEEWWW
##JR
##qj
##zzOOOOvvv
##ooO
##RRRRRCCCCCCCC
##llllTTTTTTTTTTTTTT
##LLsssssuugg
##mmmmmmmmmmmmmmmmmmmmmmmmmmmmmmmnn
##uuuuggglll
##KKKKKKKKKEEEEE
##qMMMMMMMMMMMM
##AAyy
##ggQQ
##BBBBBBBU
##Jxxxxx
##MMMttttttttttttttt
##AffPP
##qqqqqqqTTTTTT
##QQQQoVVVVV
##yyyyyyDDDD
##ooVVVyDDD
##MMMMMMMMMMMMMnF
##eeeeeeeeeeeeeeeeeeeeeehhhhhh
##uuuwwwwppjj
##eeeeeeeehhhhhhhhh
##LLLLssswwww
##LLLFssss
##aO
##zzaa
##SSSSzzzzzzzzz
##yyyppj
##nnnnnnCCCCCC
##LLLAAAAA
##pppFj
##KKKKEEEEEEEE
##MMMMMMMnFn
##MMMMMMMMMMMmmn
##FJJJ
##AAAg
##oobbbbbbkkk
##MMMMMMMMMMMMMMnn
##MnM
##JJUUUUUUU
##QQQr
##EEEEEErrrr
##ffi
##OOOv
##yyyyyyfffiiiiii
##mmnnnnnnnnnnn
##bbbbbIIssss
##yyyyypppjjjj
##lllllUU
##QQQob
##PPPPoVV
##oobbbF
##FlTT
##OOOOOvvvvvvvv
##ji
##KKWW
##IIIIIIIII
##eeeeeeeeeeeeeeehhhhhhhh
##eeeeeeeeeeeeeeeeh
##ccccccxxVVV
##SSSSSSSaaaaaa
##RRRRRRCCCCCCCC
##zzzzzzzdd
##kPPPQQ
##IIIIIIIy
##QQQrrr
##ppjjji
##AAAAAAAAAAAAAf
##Fpss
##llUUUU
##WWWEEEEE
##sssssuuuuuuuu
##GGGGGGGxVV
##ddddddddddddddddddddd
##SSSSSSzzzzzzzz
##eeeeehhhhhnnn
##XXXXXXkUU
##SSSSGGG
##lllTF
##LLLssFs
##MMMMMMMMtttttttttttt
##ooVVVpkk
##MMMMMMMMMmmn
##eeeeeeen
##psp
##ooVVyyDDD
##SSSSSSaaaaaaaaaaaaa
##Bxxxxx
##LLLssuuuuuuuu
##Lssssggg
##ppjjjjji
##RRRRRRRRRRCCCCC
##rrrrrrrrrrr
##LLLsssuggg
##FWWWWWWW
##ooII
##LLLssssuuuuuugg
##cccxVV
##yyyyyyyyyyyyyyy
##kkkQrr
##IkI
##FUUUUU
##oLLV
##GGcc
##SSSoor
##mnmmmmmn
##hnnnn
##nFttttt
##mmmmmmt
##AAg
##cccxxVVV
##DDDDDsss
##aE
##iiiWWWWW
##oVVpk
##eeeeeF
##Fpj
##SSzzzzzzzzzz
##SSSSzoo
##mmmmmmmmmmmmmmmmmmmmmmmmmmmmmmmmmmmmmmmn
##eeeeeeeeeeeeeeeeeeehhhhhhh
##JJJJxxrr
##obbbbIkk
##FDDD
##SSSSSSzzzzzz
##zaaaa
##llSSSSS
##QoooV
##LLLsgg
##KKKKKKKKKN
##eeeehhhhhnnnn
##oorrrAff
##QQooVVVVV
##JJJJJJJJJJJJxx
##nnCC
##EEEFE
##EEEFEEE
##ApPPPP
##MMMMMMMMnFn
##qqqqqqqqTT
##oobbbbbIIIIII
##GGGGGGGGGUUUU
##MMtttttttttt
##yyyR
##MMMMMMMttttttttttttttt
##mmmmmmmmmmmmmmmmmmmmmmmmmmmmmmmmmmmmmmmmmmmmmmmmmmmmmmmmmmmmmmnFn
##lBBBB
##EEEEEWWW
##ttttee
##LLsssssgggg
##Fyf
##ggwwrr
##zdddd
##KE
##KC
##sssssggg
##obbbbbbIIIIII
##qqF
##MMMMMMFn
##ooVVVVyyyyyy
##Soorr
##mmmmmmmmmmmmnnnnnnn
##kj
##AgPP
##SSTTTTTTT
##QQQobbbbbIII
##ooVVVkkk
##fffWW
##ooVVAPPP
##oorAAAf
##ooVVyyyDDDD
##HHHHHklll
##fWWWWWW
##XXXXXF
##FVyyyy
##mmmmhh
##AAAAfPPPP
##QQQoorr
##EEEFEE
##LLFLss
##llllUUU
##WWWEEEEEE
tttttttttt
##eeeeeeeeeeeeeeeeeeeeeeeeeeeeeee
##JJJJJxxVVV
##qqqqqqTTT
##eeeehhhhhhhhh
##SSaaaaaaaaaaaaaaa
##ooorrr
##pppjjWWWWWW
##GGGGGGGGxxVV
##RRRRRRRRRC
##uuuuuuuuujjjj
##QBB
##Ag
##DDDDDDD
##ppjjjF
##LLLFs
##kkkkQQQQQQ
##DDDDDDiiii
##GGGGGGGGGGGx
##oookkk
##GGGxx
##LLsssgwww
##LLssgg
##oLLLsssggg
##Irr
##Qrrrrrrr
##CCCCCCCoo
##mmmmmmmmmmmmmmmmmmmmmmmmmmmmmmmmmmmmmmmmmmmmmmmmmmmmmmmmmmmmmmnFmmmmmmmmmmmmmmmmmmmmmmmmmmmmmmmmmmmmmmmmmmmmmmmmmmmmmmmmmmmmmmnF
##JC
##DDUUUUUU
##uuuugw
##uuuuuuuuuugF
##RRRVVVV
##nnnnnnCC
##oVVVDDD
##qqqqqqqqqqqqqqqqq
##LLLsswwwwww
##rrrrKKKNNNNNNN
##ooVk
##eeeeeeeeeehh
##LLLLssgggg
##MMttttttttttt
##AAAAgg
##qqqqF
##zzzOOOOOOOOO
##mmmmmmmmmmmmmmmmmmmmmmmmmnnnn
##ppkjj
##mmmmmmmmmmmmmmmmmmmmnnnnn
##LLLsssggP
##uuuuuwF
##xxFx
##mmtttttt
##ppR
##rrryyfff
##QQobbbIIII
##LLsssssugggg
##oFoVV
##FRRRR
##wwj
##nnnC
##pppjw
##Jc
##ssggg
##obbbIkk
##zzzzzzzzzOOOOOO
##zzzzzzzzzzzO
##Fpppp
##XXXXkk
##LLssssgF
##CCCCCoo
##TTTTTTTTTTToo
##KOF
##QQrrrrr
##pkPPP
##obIIII
##ffWWWWWW
##llllcccccccxx
##KKKEEEE
##LLLLsswwww
##QQd
##eeeeeeeeeeeeeeeehhhhhhhh
##AAPPPPPP
##KKKvvvvv
##oobbbbIIssss
##ppjkQQQQ
##Rq
##eeeeeeeehhhhnnn
##obbbkkkQQQ
##kkkQQF
##xVVVyyyy
##kkkP
##TTTTTTTTTTTTTTTTTTTTT
##GGGo
##pLsss
##PPFP
##GGGGGGGGGGGxx
##aaaaaaaaaaaaaaaaaaaa
##QQorV
##LLsssssuuuuggg
##rrrrrrKKNNNN
##SSSSSaaaaaaaaaaaaaaa
##VVkk
##llllllllT
##ooVVyyyDDD
##ccccccccccccx
##yyyM
##orHHHHHHk
##ppgjj
##LLLsssssuuuggg
##GGGGGGGxxVVV
##qn
##OOOOr
##AAAAAgPP
##QQQQQQQQQQQ
##Qobbkkkk
##lQQLLLssss
##LLLssssuuuuuuuggg
##GGGGGGGGU
##QoVVVyyyyyy
##mmmmmmh
##dddddNNN
##KSSSaaaaaa
##uwwwwppjj
##SSQQ
##ffWWW
##BBBBBBBBBBBBBBxxx
##EEEEEEEr
##Slll
##aG
##VVyyyDDDD
##fffWWWWWWW
##obbbbkPPP
##ooVyyyyyy
##CCCCCCCTTT
##fPll
##Faaaaaaaaaaaa
##yyyDDDDDi
##VVVVVyy
##mmmmmmmmmmmmmmmmmmmnnnnn
##rrrH
##pppjjFj
##yRR
##eeeeeeF
##MMMMMttttttttttttttttt
##LLssssswwwww
##FlT
##oobbbbbbbkk
##yyDDDDDiiiii
##ooVVVyDDDD
##FfPPP
##obbbbIIIIII
##qqqqqqTTTTT
##uuuuuuuuuwww
##zzdddddd
##MMMMMMMMMMmmmn
##QobbII
##Fc
##wwf
##obbbbbbbbbIII
##nnnnnC
##fPlll
##BBBBBBBBBBxF
##ggwwr
##FNNNNNN
##EEEEEEEErr
##EEEEEEEoVVVV
##JJJJJJJUU
##yyffP
##Hbb
##mmmmnFnnn
##BBBBBBBBxxV
##ooVVyDDDD
##vN
##LAAAAAAAAf
##ddddNNN
##nFnnnnnn
##JJJJJJxVV
##Agg
##SSSGGGGGGx
##LLsssuuuuuuuggg
##xxxVVyyy
##EEEEWWWW
##nnnnnPPPP
##LLsFss
##Fyyyyn
##mnmmmnn
##JJJJJxxr
##Fyff
##FTTTTTTTTTT
##QLLAAAAAAAA
##BBBBxxr
##uuuuggwww
##xFJxx
##mtttttttttt
##oOO
##WWWWWTT
##qqqqqqqqqTTTTTT
##VVyyyyyyyy
##OOvvvvvvvv
##JJJJxxVVV
##ugFs
##MMttttttttt
##AAAAAAAwww
##QoLL
##Qdddddddd
##zzzzF
##ooVF
##FSaaaaaa
##rrryyy
##eeeeeeeeeeeeeeeeeeeeehhhh
##RoVVV
##QQQQLLLLsssss
##eeeeeeeeeehF
##eeehF
##yffP
##Vyyyyyyyy
##us
##aaG
##EEEEoVVVV
##SSSSFSS
##SSSFSSS
##ooobbb
##eeenF
##eeeehhhhhnn
##HHHHklll
##OOOOOOOOOOvvv
##SSSzzzzzzzzzz
##EEEFEEEE
##LLLLssgg
##uuuuuugggll
##HHHHkllll
##qqqqqU
##gwwr
##oVVVVVII
##FKN
##EErrrrrr
##zzzzzOOOOOOOOO
##EoVV
##QQLLLL
##uuuuw
##RRRRCCCCCCCC
##rrrrKKKKNNNNNN
##rrryyyyfff
##mmmmmmmmmmmmmmmnFn
##LLLLsssgg
##kkkQQoVV
##cccccccccxxxxx
##GGGGGGGGGGxxxx
##eeeeeeeeehhhhhhhhh
##Mqq
##JBBB
##nnnCCCCCCCC
##oHHHHHHHHHk
##QQQQQoVV
##ooVVVVVyy
##qqqqqqU
##KKKKKKEEEEEEEEE
##fflll
##QQQooF
##MMMMMMMMMMMMmn
##OOOOOv
##RRRRRRRRRRCCCC
##KSS
##QQU
##QQRR
##bbbbIIssss
##tttttee
##JJJJJJJxxV
##uuuuuuggglll
##eFtt
##eeeeeeeet
##EEEEEEEEWWW
##EEEEEEoVV
##orHHHHHk
##HHr
##LLssssuuuuugg
##BBBF
##ypppjjj
##JJJJxVVV
##uuuuuuuug
##BBBBBxxVVV
##cccccccccxF
##mmeeee
##QQoVVVyyyy
##Qobbbbk
##BBBBBBBBUUUUUUU
##LLLsssgggP
##JJJJJJJJJJJJJxxx
##QFU
##WWWWWWWTTTTTT
##Mh
##AAAyy
##mmmmmmmmmmmmmmmmmmmmmmmmmmmmmmmmmmmmmmmmmnF
##Kvv
##llllllTF
##LLLsssssgg
##EEEEFE
##KKKzzz
##yyyDDDDDii
##SNN
##rrrrAAff
##QQQobbbbII
##QQQobbbbIIII
##EEEEEoVVV
##EEEEErrrrr
##HHHHIIIII
##ooVVyDDD
##eeeeett
##jP
##iWWWW
##WWWWWWTTTTTT
##KKKKKKKEEEEEEEEE
##BBBBBBBBBBBBBxxxx
##LLLssswF
##EEEEEEErrr
##QQoorrr
##pppjjF
##QQQQQLL
##mmmmmmmmmmmmmmmmmmmmmmmmmmnnnn
##MMMMR
##llllccccccxx
##AAAAAAAAAAAAAAfff
##AAAAAAAw
##ffSSSSS
##aaaG
##llllllcccc
##oorAAAAf
##uuuuuuuuuwwww
##ccccccccccxF
##Errrrrr
##SSSSTTTTTT
##QoVVyy
##MMMMMMMMMMMMMmmmmmmmmmmmmmmmmmmmmmmmmmmmmmmmm
##qqqqqqqqqTTT
##kkkQQQF
##JBBBB
##azzz
##WEEEEEEEEEEE
##mmmmmmmmmmmmmnnnnnnn
##yyyyyynn
##HHHHHHHfk
##XXXIIII
##uuuuuuuuuwwwwww
##BBBBBBxxxV
##RRRRRRRRRCC
##Bq
##MMMMMMMMMnFn
##SCCC
##Fpppjjjjj
##SSSzoo
##mnnnnCCCCC
##obbbbbIIssss
##Forr
##nnnnq
##obbbbbbbbbIIII
##zzzzzzzzOOOOOOO
##qqqqqqqqTTTTTTT
##ttttttee
##QQoVVVVVy
##Mnnnnnn
##BBBBBxxr
##AAAAAAAAAfF
##mtn
##nh
##LLLssssuwwwww
##zzzzzzddd
##pDDDD
##llSF
##QQQQooVVVV
##LLLsssuuuugggg
##eeeeeeeeeeeeeeeeeeeeeeehhhhhh
##ffKK
##WWWEEE
##ddddddNN
##oobbbbbbk
ntt
##IV
##EEr
##lllllTTTTTTTTTTTTTTTT
##obbIIIII
##Iyyyy
##mmmmtt
##oVVVpppppjjj
##KKKKKKKKKKKKKKKKKKKK
##yyyffP
##oVVVVVyyyy
##kkkSSSSa
##CCCCCCT
##aaaaG
##ccccccccccxxxxx
##MMMMMMMMMMMMMMMMn
##ynnnn
##LLssssuuugggg
##tttttttttttet
##LLssssgwwww
##QQQLLLsssggg
##MMMMMMMMttttt
##ooVVAPPPP
##eeeeeeeeeeehhh
##llllccccccccxx
##rrAAff
##GGGGoVV
##oVVVppppp
##eeeeeeehF
##aaaaaaaG
##bbbbbbbIF
##kkSSSSaaaaaa
##QQoobbb
##EEEEEFE
##ppjjjiii
##MMMMMMMMMMMmmmn
##KKKKKKKKKEEEEEEEE
##SSSTTTTTTT
##SSSoorr
##oVVVDDDD
##MMMMMtttt
##MMMMMMnFn
##JJJJJxxrr
##FAAA
##oFo
##XXXXXXXXXk
##Fd
##JJJxVVV
##pssssss
##LLsssgwwww
##AAAAAAfPPP
##MMMMMMtttt
##Lssssuuuggg
##Ro
##PPPlll
##llllllccccc
##yyyyyyyffiii
##Fttttttttt
##Eoo
##QQobbbbbIII
##eeeeeeehhhhhnnn
##co
##uuuuuuuuwwww
##zzzzzddddd
##rrrrrrKKKNNNN
##SRR
##QQEEE
##ppgg
##rrKKKNNNNNN
##bbbbbkPPP
##mmmmnmmn
##XXXXXXXXXXXIII
##QRRRR
##eeeehhhhnnn
##uuuuuuugw
##WWWEEEE
##eeeeeeeeeeeeeeeeeeeehhhhhhh
##MMtttttttttttt
##aaz
##obbbbbbbbbkk
##EEEEEEEEEEWW
##rrrrrKKKKNNNNNN
##FSzzz
##yyyyyyyfffiii
##Qll
##mmmmmmmmmmmmmmmmmmmmmnnnnn
##KKKKO
##MMMtttttttttttttttt
##VVVyyDDDDD
##zdd
##ppjjlll
##obbbbbIk
##yfffff
##OOOOOOOOOOOvvvvv
##ILsss
##EoF
##ppjjjjQQQQ
##yfffiiii
##ggPQQQQ
##QQoob
##HHIIIII
##EEEWWWWWW
##WWWWWWWWTTT
##ettttttt
##OOOOOOOOvv
##uuuugggll
##ggwrrr
##FAff
##BBBBxxrr
##ffPlll
##eeeeeeeeeeeeeeeeeeeeeeehhhhh
##zzorrrr
##eeeehhhhnn
##nnnnPPPP
##MMMFn
##SSo
##zzooV
##qqqqqqTT
##QQQLLLssssggg
##rrrrKKKKNNNNN
##LLssssuuuugg
##ugggQQQQ
##mnnnCCC
##kkkQQQQQQQQ
##MMMMMMMMMMMMMnnn
##mmmmmnmn
##JJJJJJJJJJJJx
##cccxxV
##orHHHHHkk
##LLAAAAAAAAfff
##Lq
##ffF
##yDDDUUU
##oLAAAAAA
##QQEEEEE
##ooIII
##mmmttt
##MMMMMMMtttttttttttttttt
##yppjjj
##zzOOOOOvvv
##rrHHHHHH
##zzzzdddddd
##mmmmmmmmmmmmmmmmnFn
##mmmmmmmmmmmmmmmmmnnnnnn
##oVVVpppp
##llllloF
##pppjFjjj
##yyynnn
##gggggg
##mmmmmmmmmmmmmmmmmmmmmmmmmmmmmmmmmmmmmmmmnF
##EEEEEEVVVV
##KKKKKz
##KKKKKEEE
##QobbbbbIIIII
##yyyyyyyfffiiiii
##yAfff
##QQQJ
##SSSSSzoo
##QlQQ
##LLLsssuuuuuuuuggg
##QQQobbbbbIIII
##dddx
##HHHIIIII
##yyyyffP
##RMM
##QTTT
##LLLAAA
##oVVyyyDDDD
##BBBxFB
##xxVVVVyyy
##GGGGGGGGGGGxxx
##PPl
##KKNNNNoVV
##uuuuuuugwww
##XXXXXXXXXXXII
##LLssssuugg
##OOOOOOOOOOOOOOOOOO
##ooVpkk
##TGGG
##pgF
##mmmmmmmmmmmmmmmmmnFn
##llllQo
##uuuuuuuuwwwwww
##MMMMMMMMMtttttttt
##eeeeeeeeeehhhhhhhhh
##mnnnCCCCCC
##tttttttttn
##ooLAAAAAAAA
##GGGGoVVVV
##MMMMMMMMF
##GGGGGGxVVVV
##nnnnnnPPPP
##ujjjjjj
##ccccxxxxx
##uuuuuuuuwwwww
##zzzOOOvvv
##uuuuuuuuuuuugggg
##yAA
##mmhhhh
##mmmmmmmmmmmmmmmmmmmmmmmmmmmmmmmmmmmmmmmmn
##oVF
##ccccccxxV
##XXXXXkUU
##fPPPPl
##orrrAff
##yyffiiiiii
##dNNN
##wwM
##MMMnnnnn
##ppjFjjj
##MMMMMMnnnnn
##qqqqqqqTTTTTTT
##lllllllTTTTTTTTT
##TTG
##ppkPP
##fffiiiiii
##LLLsssuuugggg
##zzzzzzzzzzzOOOO
##zzrrrrrrr
##IIyyy
##LLLsssuuuuuuugg
##XXXXXXXXXXIIII
##zzOOOOOOOOO
##QQEEEE
##rrrryy
##LLLssssuuuugggg
##ppjjll
##OOOOOV
##yyyyyyyyyyn
##LLppp
##oobbk
##tttttttee
##yyffiii
##IIIyppjjj
##JJJJJJJJJJxF
##ppFP
##JJJJJJJU
##Fji
##oobbbbbbbI
##mmmmmmmmmmmmmmmmmmmmmmmmmmmmmmmmmmmmmmmmmmmnF
##dddNNN
##pppjjjjji
##yyyDDDDDiiiii
##RQF
##oobbbbIIIIII
##oVr
##Fntt
##Fffff
##mmmtttt
##JJJxxrr
##EEEEEEEVVVV
##OOOOOOvvvvvvvv
##Fpjjjjjj
##uuuuuuuuuuug
##MRRR
##Mmmn
##OOkvvv
##MMMMMMMMmmn
##mmmhhh
##ddddddddrr
##MMMMMMMmn
##ppppjjjjQ
##ooVVkkkQQQQ
##JJJxxr
##ooVVVp
##AAAAAPPP
##mmmmmmmmmmmmmmmmmmmmmmmmmmmnnnn
##kkkSSSSaaaa
##zddddd
##MMMMnnnnn
##PPlll
##QQQE
##uuuuuuuuuj
##oVVppp
##pppjjjjii
##WWWWWTTT
##QoVVVkk
##lFlll
##BBxxVV
##Szzzzzzzzzz
##KKEEEEEE
##MMMMMMMMMmmmn
##VVVypppjj
##GGFGGG
##qMMMMMMMMMMM
##QQLLsssss
##OOv
##ooVVVF
##Rz
##ToF
##EEFEEE
##OOOOOVV
##SSSSSSSaaaaaaa
##oXXXXXXXX
##BBBBBBBBBBBBBBBBBBB
##cccccccccccccc
##mmmmmmmmmmmmmmmmmmmmmmmmmmmmmmmmmmmmmmmmmmnF
##cxxVV
##mmmmee
##eeeeeeeeeehhhhhnnn
##pppppjwww
##fKKK
##ppgPP
##mmmmmmmmmmmmmmmmmmmmmmmmmmmmmmmmmmmmmmmmmmmmmmmmmmmmmmmmmmmmmnFn
##HHff
##MMMMMMMMttttttttttttt
##rrrrrKKNNN
##sssssuuuuggg
##EEEEFEE
##Qoobbbbbbbb
##oVVyyyyyyyy
##mnnnmn
##rFV
##uuuuuuuuggggg
##JUUUUUUU
##mmmmmmnnnnnnnnn
##lQQQQQQ
##QQQLLLL
##LLsFs
##WWEEEEEEEEEE
##KKKKOO
##rrrKNNN
##LLssssugg
##JJJJJJJJxxVV
yyy
##AAAAsss
##uuuuuw
##ooVVVDDD
##Qobbbbbk
##obbbbF
##LLssssuuuuuugg
##LVVVyyy
##JJBJ
##obbbbIIIIy
##JJJB
##oVpkk
##KKKKKEEEEEEEEE
##RRRRRRRRRRRRRR
##uuugFgg
##ssssuuuuuggg
##EEEEEEVVV
##GGGGGxxVVV
##RMMMMMMMMMM
##JJJJJJJJJUUUUUU
##uuuuuuuuuwwwww
##PPPPQoo
##mmmnmnn
##Fnmn
##SSSaaaaaaaaaaaaaaa
##nnt
##AAss
##AAsss
##ooVkkkkQQQQ
##pppjjWWWWW
##FQLLLssss
##HHb
##GGGGoVVV
##rn
##rHHHHHHHHH
##EEFEE
##ppjjjjiii
##eeeeeeeeeeeeeeeeeehhhhh
##oOF
##MMMMMMMnnnnn
##uuuuuuuuuuuuuuugg
##BBBBBBBBBBBBBx
##KKKKKKKKEEEEEEEEE
##LLLssggP
##rrrrrrKKKNNNNNNN
##yyDDDUUU
##SQor
##RoR
##oHHHIII
##QUUU
##oVVyyyDDD
##ccccccccxxxxx
##oorAAAAA
##kRR
##orrrAAff
##mmnnnCCCC
##eeeeeehhhhhhnnn
##LLssswww
##AAAffP
##KKKKKKKKKNN
##meeeeee
##RMMM
##ffiiiiiii
##MMMMMMMtttt
##FSSaa
##qMMMMMMMMMM
##TToF
##QQQoLLLssss
##HHHHHHHHHHHHk
##LAAAAAAAAAf
##yyyffiiiiiii
##uuuuuuugggll
##lUUUUU
##HHHHHHHHHHkk
##AAAsss
##gFw
##pppppss
##rPPP
##rrryyyy
##LLLLssswwwww
##obF
##EEEEEEEEEEEEEEEEEEEEEEEE
yn
##Kzzzz
##mmttttttt
##EEFEEEE
##LLLsssuuuugg
##mmmmmmmmmmmmmmmmmmmmmmmmmmmmmmmmmmnF
##ppjMMMMMMMMMM
##FVyyyyy
##Xkk
##mmmmmmmmmmmmmmmmmmnFn
##zzzor
##ddddddddr
##LLLsssssgggg
##ppppjjjjQQQQ
##RRRRRRRCCCCCCCC
##oorrAAf
##lTTTTTTTTTTTTT
##rrryyyyff
##pppjjjF
##LAAAAAAAAAAAfff
##rrrrrrrfff
##KOOOOOOOOO
##KKKOOOO
##MMMMMMttttttttttttttttt
##STTTTTTTT
##KWWWWWWWWWW
##mmmmmmmmnFnn
##eeeeeeeen
##mmmmmme
##bbbbbbbkkSSSS
##KKKKKKF
##Qobbkk
##hhhnnnCCCCC
##GGx
##KKKEEEEEEEE
##hhhnCCCCC
##rrrrryyyfff
##mttttttttttt
##lllcccccxx
##wwwyyy
##eeeeeeeeeeeehhh
##eeeeeeeeeeeeeehhhh
##eeeeehhhhhnnnn
##EEEFEEEEE
##aaaaaaG
##BBBBBBBxxxV
##LLLLssssgggg
##Hrr
##QQQQLL
##oVVyyDDDD
##rrrrrKKKKNNNNN
##llllllTTTTTTTTTTTTT
##bbbbbbbbbIIIII
##eeeeehhhhhhnnn
##TGGGG
##BBBBxxxV
##EEEEEEFE
##oHHHHHHHHHH
##llllQF
##LLssFs
##tM
##rrAAAAff
##llllTTTTTTTTTTTTTTTT
##wwwwr
##ooVVPPPP
##In
##ppjjjjjjjj
##GGGGGGGxxV
##orHHHHHH
##SSzorr
##XXXXXXkU
##QQoobb
##EEEEFEEE
##uuuuuuuuwww
##FkP
##oobbbIIsssss
##yyyyDDDDDiiii
##Rrr
##Kv
##QQQLLsssss
##qMMMMMMMMMMMMM
##MMMMttttttttttttttttt
##QoHHHHHHk
##KKKOOO
##mmmmmmmmmmmmmmmmmmmmmmmmmmmmmmmmmnF
##TTTTTTTTTooV
##yDDDiiiiii
##KKvvv
##LLLssssuwwww
##LLssssuuugg
##dddddddddddddddddddddd
##OOVV
##oVVpppjj
##ugggw
##orrrff
##QooVVVyyyyy
##zddd
##EEEEoVVV
##ooLV
##llllllllTT
##LLLsssssugg
##yyyyyfffiiiiiii
##uuuuuuuggglll
##eeeeeeeeeeeeeeeeeeh
##Fps
##MMtttttttt
##llQoVV
##wwFw
##MMMMMMMMnnnnn
##lllllTTTTTTTTTTTTTTT
##EEEEEEoVVV
##yyyyyyynn
##RRRRRRV
##FrV
##aTT
##AAw
##SSSGGG
##bbbbbbkPPP
##WWWWWWWTTTTTTT
##yyyyyyfffi
##pLssss
##LLsssswww
##ttttttttttttet
##Fgg
##QQc
##BBxFB
##AAAAg
##EEErrrrrr
##mmnmmmmn
##EEEEEEEVVV
##BBBBBBBxxxxx
##oHHF
##lllUUUU
##zzzzzzzzOOOOOOOO
##HHHHHHHHHHHHH
##qqqqqqqqqTTTTTTT
##mnCCCCC
##MMMMMnnnnn
##wFj
##ccccxVV
##mmmmmnFnnn
##yypppjjjj
##zzzOOOOvvvv
##BBBXXXXXX
##nCCC
##QQJJJ
##LLAAAAAAAfff
##mmmnmmmn
##QobbbbI
##QooVVVVVV
##IkkP
##KKKKEEEEEEEEE
##lllloF
##oobbbbbkPP
##mmnnnCCCCC
##ppppjjQQQQ
##KKKKWWWWWW
##ffffff
##LLLswww
##Xbbb
##AAAAgPPP
##SSSSSTTTTT
##SSSSSooo
##BBBBBBBBxxxxx
##KKKKKNNNNNNNNN
##Fyyynn
##llTTTTTTTTTTTTT
##LLssssgwww
##mmmmmmmmmmmmmmnnnnnnn
##mmmmmmmmmmmmmmmmmmmmmmmmmmmmmmmmnF
##mmnmmnn
##FCCCCCCC
##mmmmmmmmmmmmmmmmmmnnnnnn
##XXXXXXXXkk
##obbk
##eeeeeeeeeeeeeeeeeeeeeeeehhhhhh
##QLVV
##EEFEEEEE
##eeeeeeeeet
##mmmmmmmmmmmmmmmmmmmmmmnnnnn
##lllQQo
##mnnnnCCC
##fKNN
##QQQQQooVV
##yyyyyyDDD
##FSSaaa
##ypppjj
##yypppjj
##JJJJxxrrr
##lllTTTTTTTTTTTTTT
##oVVppkk
##oVVVVp
##ILsssss
##zzzorr
##aaT
##lllTToo
##yyyyyDD
##ooVVVVVyyy
##BBBBBBBBBUUU
##Aww
##yyM
##QQdd
##SSSSSSSS
##MMMMMMMMMMMMnnnn
##BBBBBxxrr
##xxxVVVVV
##nCCCCCCCC
##yyyyp
##mmmmmmmmmmmmmmmmmmmmmmmmmmmmmmmmmmmnF
##oobbbbkPPP
##oorAA
##EEEEEEEEEEEW
##Fzzzzzz
##lSSSzzzz
##gk
##bbkkSSSS
##mmmnnnnnnnnnnn
##DDDDDiiiiiiii
##VVyyDDDD
##FSSaaaa
##mmmmnnnnnnnnnn
##uwwwwwppjj
##hhhnCCCCCC
##MMMtttttt
##dddddrrr
##KNNNNoVV
##mmmmmmmmmmnnnnnnnn
##rryyy
##eeeeeeeeeeeeeeeeehhhhhhhh
##ppppjFjj
##KKKWWWWWWWWW
##ooVyyyyyyyy
##SSSSSSaaaaaaaaaaaaaa
##AAAAAAAAAAAAAAAAff
##zzzzOOOOOOOOOO
##lllSS
##QQQobbbbkk
##FfPP
##QQEEEEEE
##JJJJUx
##lllB
##zzzOOOOOvvv
##yyyyyyyppjj
##fWWW
##dE
##LOF
##mmmmmmmmmmmmmmmmnnnnnn
##rrrKKKNNN
##mnnCCCCCC
##mmmmmmmt
##FlTTT
##ws
##qMMMMMMMMMMMMMM
##MMmn
nmn
##QEEEEEEEEEEEE
##llllTTTTTTTTTTTTTTT
##MMMMMMMMMMMMMMMMMMMMMM
##aaaaaG
##tnt
##JJJJxxrrrr
##KKKKEEE
##fffSS
##MMMMMMMMMnnnnn
##lllloo
##BBBBBBxxVVV
##mmmmmmmmmmmmmmmmmmmmmmmmnnnn
##RRRRRRRRRRCCCCCC
##bbbkkkSSS
##zzzzzzzzzzzzzzz
##LLsssuuuuuugg
##Lssssuuuuggg
##ryyy
##XF
##AAAAAPPPP
##SSSSSSzzzzzzz
##mmmmmmmmmmmmmmmmmmmmmmmmmmmmmmmmmmmmmmmmmmn
##eeeeeeeeeeeeeeeeeeeeehhhhhhh
##RO
##ddddO
##wwwwwyyy
##LLsssuuuuugg
##LLLssssswww
##uuuuggw
##zzzzzzzzzzzzOO
##Kk
##WWWWWWTTTTTTT
##RRRCCCCCCCC
##MMMMMMMMMnM
##fiiii
##wwF
##ooVVVyyDDD
##GGGGGGGcc
##yyyDDDUU
##cR
##PPPoVV
##QQQobbbIII
##eeeeeeehhhhhnnnn
##JJBB
##ddNN
##ppjjMMMMMMMMMM
##SSSSSSaaaaaaaaaaaaaaaa
##Afffff
##zzzzzzzzzOOOOOOO
##WWWEEEEEEE
##yyyyyyffii
##eeeeeeeeeeeeeeeeeehhhhhhhh
##eeeeeehhhhhhnnnn
##QQooVVVy
##KKKKzz
##obbbbbbkPPPP
##XXXXXUUU
##KSSSaaaaaaa
##rOO
##MMMMMMMMMMMMmmn
##DDDDDss
##FPPPP
##QQQVVVV
##wwwrr
##gFgggg
##pppjjji
##GGGGGGGUUUU
##RMMMMMMMM
##FlTTTT
##BBBBBBBBBBUUUUU
##eeeeeeeF
##lSSSzzz
##QoHHHHHHHk
##LLssp
##mmmmmmmmmmmmmmmmmmmmmmmmmmmmmmmnnn
##yyyyyyyyffiiii
##KKKKKKKNNNNNNN
##lllJ
##qqqqqqqU
##EEoVV
##QQEEEEEEEE
##wwwwwwppjjj
##mmmmmmmmmmmmmmmmmmmmmmmmmmmmnnn
##BBBBBBBBBxxVV
##JJJJJJJJJJJJxxxx
##QoooVV
##uuuuwwwwwppjj
##eeeeeeehhhhhhnnn
##bbbbkkkQQQQ
##Fyyyyyyyy
##Okvvvv
##QQQobbbbkkk
##CPPP
##nFtttttt
##LLLssssuuwwwww
##oVVVVyyyyyyy
##uuuuuuuuuuujj
##qqqqqqTTTTTT
##oLVVV
##RMMMM
##AAAAy
##yyyyyyppjjj
##xFxV
##LLLssssuuwwww
##yyyyyyD
##zzOOOOvvvv
##KKKKWWWWW
##GGGGoo
##SSSSGG
##ooVVVppp
##iiiiiSaaaa
##QQEEEEEEE
##nnnnnq
##obbbbbbbbbII
##eeeeeehhhhhn
##ppjMMMMMMMMM
##mmmmmmmmmmmmmmmmmmmmmmmmmmmmmnnn
##mmnFnnnn
##yyfffiiiiii
##mmmeee
##PPPPQF
##qqqCC
##zzzzzzOOOOOOOOO
##LA
##ddOO
##orrF
##yyyyyDDDDiiiiiii
##LLpp
##UUQoo
##RRRRRRRRRCCCCCCC
##mhhhhhh
##bHHHH
##zzzzzzzzOF
##JJJJJJxxVVV
##QooVkkkk
##Krr
##mmtttttttt
##JJJJJJJJJJJJJJJJJ
##LLsssuuggg
##obbbkkkQ
##UUUUUUUUUUUU
##FzzOO
##mmmmmmmmmmmmmmmmmmmmmmmnnnnn
##wwwwyyyy
##QQQobbbbbII
##orHHHH
##QoVVVVVyyy
##ennn
##ddddN
##rrrKKKNNNNNNN
##vvvvvl
##SSSSSSSaaaaaaaa
##eeF
##llQoVVV
##mmmmmmmmme
##uuuuuuuuuuujjj
##QQQoLLLsssss
##yyyyyyyffiiiiiii
##WWF
##wwwwyyyff
##rrrKKKKNNNNN
##orHHHHHHH
##QobbbbbI
##OOOOOOOvvvvvvvv
##rk
##rrFr
##LLssssuuuuuuuggg
##obbbbbkPPPP
##oLLssssggg
##RRQ
##CCCCF
##mmmmmmmmmmmmmmmmmmmmmmmmmmmmmmmmmmnn
##AAAAAAfPP
##qqqqqqqqqTT
##BBBBBBBBUU
##ooVyyyyfff
##KKKKKKEEE
##lllllllc
##wwMM
##bbbbH
##zzzzzOOOOOOOOOO
##oobbbIIIIII
##LLLLssssuggg
##LLAAAAAAAAAAAff
##OOOOOOOOOOOvvvv
##SQQQ
##Fppppjjjj
##bbHH
##AAAAAfP
##obbkkkkQQQQ
##Fnfff
##oobbbbbbIIIIII
##SQorrr
##Xk
##BBUUUUUUU
##RRMMM
##pjjjQQ
##cccccccccccxxxxx
##HHHHHHHHHHIII
##mmmmmmmmmmmmmmmmmmmmnFn
##zooVVV
##LLsswwwww
##eeeeeeeeeehhhhnn
##IIIypppjjjj
nnnnnnnn
##Fcc
##PPQQQQ
##pppFjjjj
##SSSGGGGGx
##mmmmmmmmmmmmmmmmmmmmmmmmmmmmmmmmmmmmmmmmmn
##EEEEEFEE
##sssssuuuuuggg
##RRCCCCCCCC
##QoLLLss
##LLAAAAAAAAAfff
##wwFww
##ooLL
##oVVVyyyyyyyyy
##MMMMMnFn
##oVpkkk
##qqqqqF
##ppppjjwww
##dddddddddF
##dNN
##WWFWWW
##bbbbbkkSSSSS
##orrryyyff
##eeeeeeeeeeehh
##lllccccccccxx
##zzzOOOOOOOOOO
##VVVyyppjjjj
##IIIIyppjjjj
##CCCCCCCCCTT
##uuuuwwwwppjj
##QLLsssss
##AAyyy
##llllcccccxx
##lllllTTTToo
##JJJJJJJJJJJJJxx
##GGGGGGGU
##LrF
##EEEEEEEEVV
##KKKvvvv
##BBBBBBBBU
##dddddN
##eeeeeeeeeeeeeeeeeeeh
##rrrrKNNN
##LLLssssuuuuuuugg
##zzzrrrrr
##oFVVV
##gggPQQQQ
##Fpsss
##zzoorr
##wwyyy
##mmmmmmmmmmmmmmmmmmmnFn
##qqqqqqqqTTTTTTTT
##KKKKKKKKKEEEE
##eeeeehhhhhhnnnn
##zzzzOOOOvvv
##WWWF
##pkkQ
##wwMMMMMMM
##llllQooVV
##KKKOOOOO
##mmmmmmmmmmmmmmmmmmmmmmmmmmmmmmmmmmmmmmmmmmmmmmmmmmmmmmmmmmmmnF
##mmmmmmmmmmmnnnnnnnn
ttttttttttt
##llllTTTToo
##mmmmmmmmmmmmmmmmmmmmmmmmmmmmmmmmmmmmmmmmmmmn
##TU
##JJVVVV
##WWWWWWWWTTTT
##iiiiiSaaa
##zzzzOOOvvv
##Eo
##iWWWWW
##QQQVVV
##ooVyyyyy
##MMMMMMMMMMnFn
##pssssuuggg
##lC
##EEFEEEEEE
##yyyyM
##LLLsssF
##MMMMMMMMMttttttttt
##mnnmmmn
##rrrrrryff
##oLAAAAAAAff
mmmmmmmmmmmmm
##oookk
##GGGGGGGGGxF
##DDDDiiiiiiiii
##oa
##rrrKKKKNNNNNN
##FSaaaaaaa
##orrrryyff
##uuuuuuuuggw
##DDDss
##OOOkvvv
##oHHHHHHHHIII
##hhhnnnCCCC
##JxxVV
##fffW
##lllllQQ
##MMMMMMMMMttttttt
##FbI
##xFBBxx
##rrrFr
##QQQobbbII
##EEEEEEEoVVV
##yyyyDDDDDD
##mmmmmmmmmmmmmmmmmmmmmmmmmmmmmmmmmmmmmmmmmmmmmmnF
##yrff
##pDDDii
##WWWWWTTTT
##GGGGGxxxx
##GGGGGGGGGU
##QLLLssswwww
##bbkkkQQQQ
##eeeeeeeeehF
##rrrrKKKNNN
##QQorF
##ooFr
##FzOO
##oobbbbbbbbIIIII
##EQF
##ddNNN
##BBBBxxVVV
##pppppppjjjjjjj
##zzzzzzzzd
##pppjjWWWWWWW
##KKKNNNNNNNNN
##OOOOOOv
##FOOOO
##FKNNNN
##bIIIIIII
##lQQQQQ
##ccccccccxF
##oobbbbbbbbkk
##FLss
##RG
##pggg
##JJJXXXXXX
##mmnnCCCCC
##rrrrKKKKNNNN
##mmmmmmmmmmmmmmmmmmmmmmmmmmmmmmmmmmmmmnF
##yyyyyyfF
##ooVyyyy
##QQQoVVVVVy
##Qccc
##nnC
##oVkkkkQQQQ
##yDDDDiiiiiii
##nmnnn
##rHHHHHHHHk
##Qoorrrr
##oookkkk
##oVVVVppjj
##BBBBBxxxxx
##oorAAAAAff
##IIIyppjjjj
##ppppjF
##xxrrrrff
##BBBBBBBBBBBBBBxxxx
##RMMMMMMMMMMM
##llBBB
##eeeenF
##EEEEFEEEE
##BBBBxFB
##EEEEEWWWW
##pppjjjii
##yyyyfffiiiiiii
##FzO
##BUUUUUUU
##EEEEVV
##sssuuugggg
##obbbbbbbkPP
##BBBBUx
##QoVVpkk
##QVVVyy
##ttnFn
##SSQo
##rrHHHHHHH
##ooHHHHHHHHk
##rrrrKNNNNN
##Qoobbbbbbb
##ooVyyyyyyy
##IIIIyppjjj
##EEFE
##JJxxV
##MMMMMMMMtttttttttttttt
##sssuuuuugg
##AAAAAgg
##ooVyyyyyfff
##QoVkk
##ppppppjjjjjjjj
##yyyyyffP
##Fyyf
##LLLFLsss
##HIIIII
##llccccccxx
##ooVVVpppjj
##WWWWWT
##BBBBBBxxxxx
##eeeFt
##Kvvvvvvv
##mmmmmmmmmmmmmmmmmmmnnnnnn
##rrrrrKNNNN
##eeeeeeeeeeehhhhhhhhh
##yyyyyffiiiiiiii
##lllccccxVV
##lQQF
##if
##LLssssuuuugggg
##oVVVpppppjj
##LLLsssuuujjj
##TTTTTTooVV
##XXXXXUU
##QLLLssssuggg
##MMMMMMMMnM
##QlQ
##KKzzzz
##llcccccccxx
##ddddx
##orrryyyfff
##yyyyyDDDiiiiiii
##QQobbbbbII
##QQQQoLLLssss
##cccccccxxVVV
##Vkk
##QQQQLLLLs
##nnnnnnnCCCC
##orrAAA
##mmmnnmn
##qqqqqqqT
##QoVVVVyyyyy
##yyyDDDU
##SSR
##yyyDDDDU
##oVkkkQQQ
##obbIIssss
##obbkkkSSS
##FfP
##EN
##rKKKNNN
##oobbbbbbbbbbb
##oobbbbbbbbbIII
##fPPPorr
##qqqqqqqTTTTTTTT
##SW
##EEEEEVVV
##obbbkkkkQQQQ
##orHHHHH
##mmmmmmmmmmmmmmmmmmmmmmmmmmmmmmnnnn
##VVVyyypppjjjj
##pssssuuuggg
##BR
##rrHHHHHk
##JJxVVV
##WWFWWWW
##eeeeeeeeeehhhhhnn
##yDDDssss
##QQQQQQQLLLsssss
##nnnmn
##eeeeeeeeen
##mmmmmmmmmmmmmmmmmmmmmmmmmmmmmmmmmmmmmmmmmmmmnF
##eeeeeeehhhhhhnnnn
##eenF
##bbbkkkSSSS
##uuuuuuuuuuuuuuuggg
##nnnnnnC
##BBBBBBxxr
##ddddddNNN
##IbIIIIIII
##LLsssssuugggg
##mmmmmmme
##Lssssuuggg
##BBBBBBBBBxxxxx
##RRn
##EEEEEEEEoVVVV
##rrrrryyyff
##GGGGGGGxVVV
##mmmmmmmmmmmmmmmmmmmmmmmmmmmmmmmmnn
##zdddddd
##ppPPPQ
##GGGGxVVV
##LLLAAAAAA
##aaaGGGGGG
##TTTTTF
##llllllcccccc
##obbbbbbbIIIIII
##eeeeeeeeeeeeeeeeeeeeeeehhhh
##eeeettt
##SSSooo
##OOOOOOVV
##Affk
##pjjjQQQQ
##KKKKKKKKKKN
##uuuugFgg
##AAAAfk
##wwwwwwwy
##KSSSaaaaaaaa
##zrrrrrrrr
##lllTTToo
##MMMMMMMMMMMMmmmn
##ppkkQQQ
##RRMM
##pppjjjWWWWW
##oobbbkkkQQ
##yyyDDDDDD
##KKKKKKKKKEEEEEEEEE
##oHHHHHHIIII
##oobbbIIIssss
##LLLsgF
##mmmmmmmmmmmmmmmmmmmmmmmmmmmmmmmmmmmmmmmmmmmmmnF
##Eorr
##LLps
##VVVII
##JJJJJJJJUUUUUUU
##EEEEEEEWWWW
##mmnnCCCC
##qqqqqqqqqTTTTTTTT
##BBBBBBBBBBUUUU
##KOOOOOOOOOO
##QQobbbbbIIII
##PPQQQ
##SSSSooo
##BBBxxrr
##uuuuuujjjjj
##mmmmmmnFnnn
##XXXXXXXXD
##dddddx
##LAAAAAAAAAAf
##QLLLsssgg
##FQoVV
##MMMMtttt
##SSSSzzzzzzzzzz
##rrrAAAAff
##obbbbIkkk
##ooVVr
##nnnnnnnCCCCC
##obbkkkkQQ
##orVV
##FSzzzz
##eeeeeeeeeeeeeeeeeeeeeehhhhhhh
##FKKKKKK
##RMMMMM
##oLLLLsssss
##Mg
##LLLsssuugggg
##JJJxxVVV
##ppjjw
##PPPPPQoo
##uuuuuuuugggllll
##MMMMMMMMMMnM
##LLLsssuuuujjj
##llllllToo
##FSzz
##IIIIypppjjjj
##mmmmmmmmmnFnn
##okk
##aaGG
##EEEoVVV
##ccccccccxxVV
##KKKKKO
##wFwwww
##QobbbbbbIIIII
##oLLLssggg
##lQQoVVVV
##LAAAAAAAf
##iiiiWWWW
##aaaGG
##eeeeeeeeeeeehF
##QQQQQQLLLLsssss
##tttttttttttttet
##JJJJJJJJJUUU
##MMMMMMMnM
##FHHH
##lccccccccc
##ooVVpkkk
##kkkSSSzzz
##FEEEEEEEEEEE
##EEWWWWWWWW
##KKEEEEE
##OOOOrr
##rrrrK
##QQQT
##xFU
##BBBBBxFB
##JJJJJJxxxV
##QQQQQLLLLs
##mnnnnnCCCC
##iiiiiSaaaaa
##zzOOOOOOOOOO
##ooVVVDDDD
##EEEEEEEEEWWW
##mmmmmmmnnnnnnnnn
##uugFgg
##Faaaaaaaaaaaaa
##rrHHHHHHHH
##RRM
##ooVVVyyDDDD
##GGGGGxVVVV
##LLLssssswwwwww
##VVVyyD
##gwwwwyyyff
##yyyyDDDDiiiiiiii
##RoV
##jQ
##ooVVyyyyyyyyy
##MMMMMMMMMMmmmmn
##pjjk
##eeeeFt
##LLsssssss
##GGGooVVVV
##orrryyff
##FVyyyyyy
##LLsssuuuugggg
##LLLssp
##HHHHHHHHHHf
##pffff
##eeFt
##nnff
##UUUQoo
##bbbbbbkkkk
##mmmmmmnmn
##bbbbkkkQQ
##mmnmnnn
##MMMMMMMMMtttttttttt
##MMMMMMMMMMMmmmmn
##mmmmttt
##aaGGGGGG
##mmmttttt
##yyyyyyyyyyyyyyyy
##QLLLssggg
##Awww
##QoHHHHHHkk
##nnnf
##rrrHH
##LLLsssgww
##JJJxxrrr
##QQQobbbkkk
##VVVyyyppjjj
##oLAAAAAAff
##OOOOOOOOOOOvvvvvv
##rrrK
##RRRMM
##KKKKKOO
##tte
##ooHHHHHII
##XXb
##VVVVI
##oFoV
##QoVVVpkk
##Fyyyyyn
##EEEEEEEEVVV
##ooVVppp
##cccxVVV
##KKKKWWWWWWW
##lllllUUU
##obbkkkQQQQ
##ppppjjjU
##llllccccxVV
##wff
##lTF
##QQooVVVyy
##bbbbkkSSSSS
##ppjjjjQQQ
##XXXXXXDD
##VVVyyyppjj
##IIIypppjjj
##oXXXXXXX
##KKEEEEEEE
##rrrKNNNNN
##mmnnmnn
##zzzzzzzzzzzzOOO
##QobbbbbbbIII
##rrAAA
##GGGGGGGGxxVVV
##mmmmmmmmmmmmmmmmmmmmmmmmmmmmmmnnn
##LAAAAAAAAAAAAAff
##oobbbbbbIF
##QQLLLssssuuggg
##TTTTTTTTTTTTTTTTTTTTTTT
##fWWWWWWW
##QoHHHHHkk
##BBBBBBBBBBBBBBxx
##eeeeeeeeeeeeeeeehhhh
##eeeeeehhhhnnnn
##LLsssuuuuuuugg
##mnnnnnF
##VII
##Qzzz
##llQQoo
##LLssssuuuuuuugg
##BBBBBBBBBBBBBBBxxx
##mnmmnnn
##JJJJJUx
##bHHHHk
##pwwww
##LLLsssssss
##JJJJJUUUUUUUU
##uuugggllll
##KKKKKKKKKKEEEEEE
##Szorr
##zaaaaa
##mmmmmmmmmmmmmmmmmmmmmmmmmmmmmmmmmnn
##eeeeeehhhhn
##QQQobbbbbkk
##rrrrrKKKKNNNN
##ooVkkkQQQ
##JJJJJxVVV
##yDDDDDiiiii
##fNNNN
##QQQQLLLss
##WWWEEEEEEEE
##QQQQQQQQQoo
##BBBBBBBBBBBxF
##obbbbkkkQQQ
##BBBxxr
##EEEEEFEEE
##LLsssssuuugg
##ppPPPPP
##GGGGxxV
##lllcccccx
##AAAAAAAAAAAAAAAAA
##mmmmmmmmmmmmmmmmmmmmmmmmmmmmmmmmmmmmnF
##CCCF
##LLLsssssugggg
##mmnnnnCCCC
##eeeeeeeeeeeeeeeeeeeeh
##KKFNNNN
##FAAff
##Ryy
##KKKOOOOOO
##MMMMMMMFn
##Ftttttttttt
##QRRRRR
##RRMMMM
##AAAAAAAAAAAAAAf
##llllloo
##ooVVpk
##llllllccccccc
##LLLLsswwwww
##KKKKKKKEEE
##ggwwwr
##nt
##nnmnn
##eeeeeeeeeeeeehhh
##aGG
##nnnnnPPP
##Lssssuuuuuggg
##lllllllTTTTTTTTTT
##yyDDDiiiiiii
##pppppF
##yDDDUUUU
##GE
##jPP
##EEEEEEEEr
##sssssugggg
##GGGoF
##LLLswwwww
##IkPPP
##fKNNN
##KOK
##kII
##rrPPPP
##rrrryyyyfff
##ooVpkkk
##IIIIIyyy
##OFO
##FzzO
##mmmmmmmmmmmmmmmmmmmmmnFn
##oII
##Arrr
##LLLsssuuuuugggg
##ooVyyy
##QoVkkkk
##yyyyFff
##SSSSGGGGGGx
##JJJJJJJJJJJJJJxxx
##CCCCCCTT
##QQorrrrrr
##QoobbbIII
##BBBBBBBBBBBBBBBBBBBB
##JJJJJxxxV
##QQQQQQLLLLsss
##ggwg
##nnnnqq
##LLLssssugF
##nnnnnCCCCCCC
##BBBXXXXXXX
##QQQobbbIIII
##obbbbbIkk
##mmnnmmn
##LLLLsssswwww
##zOOOOOOOOO
##Lppp
##ppppppppjjjjjj
##mmmmmmmmmmmmmmnnnnnnnn
##HHHHHHHHHHHHHHHH
##gwwwr
##yfffiii
##zzzzzzzzzzzOOOOO
##Qbbbbb
##zzoF
##kkR
##GGGFGGG
##uuuuugFgg
##ooVVVyyyyyyyyy
##qqqqqTTT
##bbkkkQQ
##zzzzrr
##BBBUx
##LLLsssssuugg
##QFVV
##mmmmmmmh
##eeeeeeeeeeeehh
##eeeeeeeeeeeeeehhh
##mnCCCC
##GGGxVV
##oHHHHHIIII
##Bcc
##QQddd
##yyyyppj
##tttttttttttttttttttttt
##qqqqqqqqT
##WWWFWWW
##oorrrfff
##eeeeeeeeF
##mmmmmmmmmmmmmnnnnnnnn
##EEEEEVVVV
##VVVyppppjjjj
##Fynnnn
##pjjjQ
##rrrrrKKNNNNNNN
##eeeeeeeeeehhhhnnn
##eeeeeeeeeehhhhhnnnn
##BBxxV
##llTF
##KKKW
##JJJJJxxrrr
##TTTTTTTTTTTToo
##xxVVVVVV
##qqqqqqqqqqTTTTT
##Dy
##zzOOOOOvvvv
##yyyyppjjjjj
##MMMMMMMMmmmn
##fffNNN
##QQQRR
##EEEoVVVV
##mmmmmmmmmmmmmmmmmmmmmmmmmmmmmmmmmmmmmmnF
##BBBBBxxLLsss
##HHHHHHHkkk
##LLLLssssuuggg
##JJJJJJJxxxxx
##KKKKKKKE
##psssggg
##Xbbbb
##AAAAssss
##zzzo
##oVVkkkQQQ
##EEEEEEEFE
##ppppjjww
##IIssssggg
##mmmmmmmmmmmmmmmmmmmmmmmmmmmmmmmmmmmmmmmmmmmmmmmnF
##KKFNNN
##Ayyy
##SSTTTTTTTT
##KKEEEEEEEE
##rrrO
##uuuuuwwwwppjj
##QQobbkkk
##eeeeenF
##uuuuuggww
nttt
##RoVVVV
##LVVyy
##LAAAF
##ffll
##JJJJxxxV
##pppgj
##fffPP
##zzzOOOvvvv
##zzzzzzdddd
##VVVyppppjjj
##CCCCCCCCTTT
##yAAff
##SQF
##KR
##qqMMMMMMMMMMMMM
##HHHHHHKK
##fPllll
##uuugFggg
##iiiiiSaaaaaa
##yAfPPP
##fKNNNN
##FRRRRR
##rrI
##mmmmmmmmmt
##EEEFEEEEEE
##QQQQQQQQQQQQQQQQ
##JJJJJJJJJJUUUU
##WEEEEEEEEEEEE
##lQooVVV
##eeeeeeeehhhhn
##ppjjMMMMMMMMMMM
##eeeeeeeeeeeehhhhhhhhh
##rrrrrrrKKKNNNNNN
##MMMMMMMMMMMMMMnF
##KKKKOOO
##oLAAA
##obbbbbbbbkkk
##Ob
##zzaaa
##QQQQx
##sssuuuugggg
##RRRMMM
##sssssuugggg
##qqqqqTTTT
##AAAAAfffff
##MMMMFnn
##ppjjMMMMMMMMM
##HHHklll
##SSSSTTTTTTT
##mmmmmmmmmmmmmmmmmmmmmmmmmmmmmmmmmmmnn
##AAAAAfPPPP
##orHHHHHHHk
##QobbbbIIIII
##eeeeeeeeeeeeeeeeeeeehhhhh
##eeeeeeeeeeeeeeeeeeeeeeeeehhhhh
##VVVyppj
##yyyyyyffiiiiiiii
##DDDDDDj
##FBBBB
##ooHHHHHHHkk
##zzza
##FIy
##wyyy
##gs
##rrPPPPP
##VVVpp
##SSSSGGGGGGGG
##ooVVVVpp
##zzzzzzzddd
##KKKKKKKEEEEEEEEEE
##ppjjllll
##GGGFGG
##VVVyyypppjjj
##LLLssssuuuuuuuuggg
##KKKEEEEEEEEE
##qqqqqqqqqqTTTT
##Fyynnn
##FGGGGG
##te
##LVVy
##aaGGGGG
##DDpppp
##SSSo
##LLLssssuuuuugggg
##ooVVVpk
##gFP
##XXXXXD
##zaz
##App
##QQdddd
##VVVDDDD
##nnnnnnPPP
##aaaaaGG
##BBBBBUx
##bbbbbbkkSSSSS
##OOOOOOOF
##BBBBBBBxxVVV
##xxxVVyyyy
##IkP
##QooVVVVyyy
##KKKKKKKKKKEEEEEEEE
##nmmn
##aGGGGGG
##qCCCC
##SSCC
##LLsssuuuuuuuuggg
##Fnttt
##oLLLssssggg
##llQooVVV
##bbbbbbbbbbbkk
##oVVppj
##LLLsssssuuuuggg
##JJJJJJxxxxx
##oobbIIIssss
##QLLLssssuuggg
##eeeehhhhhhnnn
##aaaaGG
##yyyyyDDDDD
##cccUUUU
##mmmmmtt
##EEEEEEEEEF
##eFttt
##WWEEEEEEEEEEE
##oobbbbbbbbbIIII
##rKK
##LLLssssggP
##XXXXXXF
##MMMMMMMMMmmmmn
##pssssuuuuggg
##lQoVVVV
##rrrAAA
##EEEEEEWWWW
##GGGGGGGxxxxx
##AAAAAAgPP
##eeeeeeeeeeeeeeeeeeeeeeeeehhhhhh
##FTTTTTTTTTTT
##yyppjjjj
##LLAAAAAff
##bbbbkkkSSSS
##eeeeeehhhhhnnnnn
##ooVVVpppjjj
##LLLLssssgg
##Fppppjjj
##zzzzzdddddd
##GGGGGGGGGGGGGG
##bHHHHHk
##Jcc
##oVVVppkk
##KKKKKKKKKNNNN
##ooVpp
##WWWWWWWTTTTTTTT
##orrAAAAff
##obbbbbbbIF
##oVVVypppjjj
##OOV
##EEEErrrrrr
##VVVyypppjjjjj
##zzzzzzzzzOF
##oHHHHHkkk
##rrrryyyyff
##bbbkkkQQQ
##IIIyyy
##yyyyyAff
##HHHHHKK
##OOOOOOV
##LLLLssswww
##aaaaaaaaaG
##uuuggglll
##FlTTTTT
##ooVVp
##rrrrrKKKKNNNNNNN
##WWWWWE
##KKKKKE
##gwwwwyyfff
##Lssssuggg
##TGGGGG
##qMMMMMMMMMMMMMMM
##QQoobbbbb
##zzddddddd
##JJJJUUUUUUUU
##KKKvvvvvv
##pppppjjjQQQQ
##zK
##CCCCU
##oobbbbIIsssss
##mmmmmhh
##uuggP
##oVVVyypppjjjj
##AAyyyy
##PPPQLLLsss
##lllccccccx
##yyyyypppjj
##Qookkk
##obbbIkkk
##TTTTTTTooo
##mnFnnnnn
##bbbbbbbbbk
##bbbbkkkSSS
##EEEEEErrrrr
##SSSSSSTTT
##sssssgggg
##VVVyD
##KKKKKKKKKNNN
##RRy
##ssssuuuuuuggg
##QQQobbbbbbIIII
##obbIF
##orHHHHkk
##orrryyfff
##KKKKKKKKKKEEEEEEE
##FToo
##Qddddddddd
##EWWWWWWWWW
##eeeeeeeehhhhhn
##QQQQQR
##LLLLsssswwwww
##MMMMMMMMMMMMMmn
##mmmmmnmmn
##EEEEEEEEWWWW
##CCCCCCCTTTT
##orrrrfff
##iiiiiSaaaaaaa
##Ip
##eehhhhhhhhh
##iiWWW
##sssuugggg
##JJJUx
##LLsssssuuuuuggg
##mmmmmmmnFnnn
##BBBBBBBBBBUUUUUU
##uuuuuuuuuujjjj
##AAAAAAAAAAfF
##FQLLLsss
##MMMMMMMMtttt
##oVVVppjjj
##ooVVkkkQQ
##RRRM
##RRRRRF
##gwwwwyyff
##mmmmmmmmmmmmmmmmmmmmmmmmmmmmmmmnnnn
##mnnnnCCCCCC
##FDDiiii
##Ovvvvvvvv
##fnn
##lSSSzzzzz
##TTGG
##llccccccccc
##SSSSSSzo
##VVVypp
##FSSSaaa
##Svvvv
##RII
##dOOO
##ooHHHHHIII
##sssuuuuuuuggg
##oVVp
##bbbbbIIIIIII
##oobbIIsssss
##FSaaaaaaaa
##ppppjFj
##KKKKKKKKNNNNN
##JJJxxrrrr
##MMMMMFnn
##LLssgwww
##yyyyyyyyyyffff
##eeeeehhhhhnn
##LLp
##AAAAyy
##HHHHHFk
##KKKKKKKKE
##WWWWWWTTTTTTTT
##oobbbIk
##QQLLLssswwww
##aGGGGG
##oH
##ssssugggg
##SSSSG
##llllllllTTT
##LLLsssww
##yyyyyypppjjjj
##BBBBBBBBBBxxxxx
##zzzzzzzzzzzzO
##yyyyDDDDDiii
##pDDDiiiii
##MMttttttttttttt
##mmmmmmmmmmmmmmmmmmmmnnnnnn
##rrrrKKKKNNNNNNN
##SSSC
##JJJxFJ
##MMMMMMMMMMMMmmmmn
##LLLssww
##xVVVVVV
##Rl
##SSN
##rrKNNNN
##rrrryyy
##FzzOOO
##mmmmmmmmmmmmmmmnnnnnnn
##eeeeeett
##oVVVVVVy
##llllllTToo
##LLsswww
##HHHHHHHHI
##JJJJJJxxrr
##dddddddNN
##tntt
##cccccccccccxF
##jk
##rrrrKKNNNNNNN
##BBBBBUUUUUUUU
##mmmmmmmmmmmmmmmmmmmmmmmmmm
##FVVy
##ooAAAAA
##llllFll
##wwwwf
##uuuuuuw
##LAAAAAAf
##llllcccccx
##HHHHHHHF
##MMMMMMMMMMMnFn
##BBBBBBBBBUUUUUUU
##Faaaaaaaaaaaaaaaa
##mmmmmmmmmmmmmmmmmmmmmmmmmmmmmmmmmmmmmmmnF
##JJJXXXXXXX
##LLLssgww
##rrrrrryfff
##QooVVkk
##WWWWF
##QQQd
##rrrrry
##uuugggll
##KKKKKKE
##QobbbbbbbIIII
##ccccUUUU
##fffll
##MMMMMMMMMttttttttttt
##rrrrrrKKKKNNNNNN
##zzzzzzzzzOOOOOOOO
##FSSaaaaa
##ddddddddddddddddddddddd
##oHHHHHHHHII
##nnmmn
##oVVVVkk
##oobbIF
##oobbbbbbkPP
##XXXXXkU
##STTTTTTTTT
##qqqqU
##LLLps
##QoobbbbIII
##lllllQ
##mmmnmmmmn
##QQQQQx
##KKKKKKO
##yyyyffffi
##nnh
##LLAAAAAAfff
##llllcccccccccc
##SSSSSSooo
##JJJJJJJJJJJxF
##AAAAPP
##BBBBJ
##bbbbbkkkSSSS
##oVVVVpppjj
##eeeeeeeeeen
##HHHHHHklll
##qqqqqqqqqqTTTTTT
##Saaaaaaaaaaaaaaaaa
##QQcc
##KKFK
##JJQ
##JJxxxxx
##kkvvv
##bbbbIk
##KKKOOOOOOO
##QQQobbbbbbIII
##eeetttt
##mmmmmmmmmmmmmmmmmmmmmmmmmmmmmmmmmmmmnn
##GGGGGGGxxVVVV
##FST
##eeeeeFt
##pssssuggg
##DDDiiiiiiiii
##eeeeehhhhnnn
nmmmmmmmmmmmmmmmmmmmmmmmmmmmmmmmmmmmmmmmmmmmmmmmm
##mtttttttttttt
##ppjjl
##LLssssswww
##ettet
##ER
##AAAAPPPPP
##mmmtttttt
##AAAAAAAAAAAAffff
##oVVVkkkQQQQ
##oVVVVpppppp
##MMMMMMMMMMmmmmmn
##obbbbbbbbI
##QQQoVVVVyyy
##Lsssssggg
##uuuuuuuuuuwww
##oHHHHHHHIIII
##ttttttttee
##oorrAAAf
##yffiiii
##MMMMMMnM
##ppgk
##QQEEEEEEEEE
##KKvv
##KKKWWW
##Fnh
##mmmmmmmmmmmmmmmmmmmmmmmmmmmmmmmmmmmmmmmmmmmmmmmmmnF
##sssuuuuuugg
##obbbkkkSSS
##QobbbI
##oHHHHHHHHkk
##JJJJJJJJJJJJJxxxx
##fCC
##SSGGGGG
##QQQQQQoVVVV
##EEEEEEEEVVVV
##SSSzzzzzzzzzzz
##yyyyyyF
##mnmmmmmmn
##JJJJJJJJJJJJJx
##AAAAAAPPP
##QooVVyy
##rryyyy
##WWWWWWWWTTTTT
##ffPNN
##JJJJJJJJJJUUUUU
##RMMMMMMM
##PPQoVV
##llllUUUU
##MMMMMMMMMMnnnnn
##JJJJJJxxr
##hhhnnCCCCCCC
##XXXXXXXkUU
##uuuuuuuuuuuug
##RRU
##eeeeeenF
##MMMMMttt
##GGGGGGGGGc
##oVVVyDDDDD
##aNN
##aGGGG
##rKKKNNNNNN
##TTTTzzzzz
##PPPPQQQ
##LLLsssuuugg
##kkkkQQQQQ
##oLAAAAAAA
##qqqqqqqqqqTTT
##pkkkQQQQQQ
##Lssggg
##Fpkk
##Mhh
##SSzzzzzzzzzzz
##VVVppjj
##SSSSSF
##JJJJJJJJxxxxx
##MMMMMMttt
##uuuuuuuuugw
##mmmmmmmmt
##EEEEWWWWW
##ffflll
##mmmmmmmmmmmmmmmmmmmmmmmmmmmmnnnn
##uugFggg
##hhhnnCCC
##mmmmmmmmmmmmmmmmmmmmmmnFn
##SSSorr
##llllllTTTTTTTTTTTTTT
##cccccxVV
##JJJJJJUUUUUUUU
##fPPPll
##ddddddN
##MMMMntttttttttt
##Iyyyyy
##PF
##vvvvl
##bbbbbbIIIIIII
##mnnCCC
##wwwwwwpppjj
##pffiiii
##eeeeeeeeehhhhhnnn
##Gccc
##KKOF
##WWWWEE
##rrrrAAAff
##EEEEEEEErrr
##mnCCCCCC
##mnnmnnn
##pssssuuuuuggg
##eeeeeeeeeeeeeeeeeeeeeeeeehhhh
##oHHHF
##wwMMMMMMMM
##LLsssggP
##ooVkkkQ
##ppjMMMMMMMMMMM
##hhhhhhnnnn
##FzOOO
##DFD
##mmmmmmmme
##tttteeeeeeeeeeeeeeeeeeeeeeeeeeeeeeee
##zzzzrrr
##cccccccccccccxxx
##qqqqqqUU
##oHHHHkkk
##mmttttttttt
##ppff
##QQQQooo
##aaaaaaaaaaaaaaaaaaaaa
##MMMFnn
##ooVVDDD
##gwwwwyyyfff
##rFf
##KNNNoVV
##QQQQQQQoo
##eeeeeeeehhhhhhnnn
##Ov
##QQQQobbbbb
##PPPPorrr
##QFW
##XXXXXXXXXXXXXX
##kPPPQ
##QQoVVVyyyyy
##FDDiii
##XIIIII
##KKWWWWWWWWWW
##rrKKNNNNNN
##ooHHHII
##LLLAAAAAAAA
##EEEEEEFEE
##LLLLsswww
##Fbk
##ppppjwwww
##yyyyyyyyffiiiii
##RRMR
##LLsssuuugggg
##LLLsgwww
##FSSSaaaa
##yyyyyyyfffff
nnnnnnnnn
##bHHHHkk
##qqMMMMMMMMMMMMMM
##bbbkkkQ
##rrryff
##JJJJJJJJUU
##mmmmmmmmmmmmmmmmmmmmmmmmmmmmmmmmmmmmmmmmmmmmmmmmnF
##rHHHkk
##Myn
##bbIIIIIII
##BBc
##ccxVV
##rrrrH
##kkkQQoVVV
##oVVVyDD
##MMMMMnttttttttt
##Qobbbbbbkkk
##FDDii
##IHIII
##aaGGGG
##zzOOOvvv
##WWFWW
##OOOOkvv
##mmmmmmmmmmmmmmmmmmmmmnnnnnn
##BBBBBBBBxxxV
##LLssgggg
##KKKKKKOO
##IHII
##oXXXXX
##rrK
##ooVyy
##eeeeeeeeeeehF
##wFjj
##HHHHHHklllll
##oI
##MMnnnnnn
##Qorrrrff
##uuuuuuuuuuuuugggg
##oobbbkkkQQQQ
##eeeeeeeeeeeeeeeeeeehhhhhhhh
##eeeeeeeeeeeeehh
##LLpss
##QQQQor
##bbbIIIIIII
##ooVVVVp
##AAAAfffff
##OOOOOOOOOOvvvvvvv
##qqqqqqqqqqTTTTTTT
##mmmmmmmmmmmmmmmmmmmmmmmmmmmmmmmmmmmmmmmmmmmmmmmmmmnF
##yyDDDDDiiiiii
##QBBB
##qqMMMMMMMMMMM
##SSSTTTTTTTT
##TTToF
##JJJJJxxxxx
##pjkP
##kkkSSSSaaaaa
##MMMMMntttttttttt
##KKv
##obbbIIIIy
##MMMMMMmn
##IIIIIIMMMMMMMMMM
##uuuuuuggglllll
##oVVVypppjjjj
##mmmmmmmmmmmmmmmmmmmmmmmnFn
##eeeeeeeeeeeeeeeeeeeeeh
##TTQoo
##CCCCoo
##bbbIIIssss
##QQQbbbb
##fPPPPll
##ugFgg
##FKNNN
##QQddddd
##LLLssssuuuwwww
##RRRMR
##obbbkkkkQQ
##VVVypppjjjjj
##zzzzzzzOOOOOOOOO
##oVkkkQ
##FSzzzzz
##eeeeeeeehhhhhhnnnn
##mmmmmmmmmmmmmmmmmmmmmmmmmmmmmmmmmmmmmmmmmmmmmmmmmmmmmmmmmmmnF
##AAAyyy
##KKNNNNoVVV
##GGGGGGGxVVVV
##FDDi
##zoVV
##MMMMMMMMttttttttttttttt
##QQQoob
##mnmnnnnn
##qqqqqqqqTTTTTTTTT
##hhhhhhnnn
##qqqqqC
##FzzzOO
##QQobbbbbkk
##bbbIk
##MMMMMMMMMMMMMmmn
##QQLLLssssuggg
##DDDDDDiiiii
##XXXXXXXXXXXI
##xFBBxxx
##SSSSSSaaaaaaaaaaaaaaa
##gfP
##qMMMMMMMMM
##aaGGG
##yyyyyFff
##ooVVpppjj
##rrrrrKKKNNN
##gwwwwy
##SSSSSSSaaaaaaaaa
##uuuuuwwwwwppjj
##meeeeeee
##Fnnnnnnnnn
##QCC
##Uddd
##ooVVVppppjjj
##TTTTTzzzzz
##qqqqqUU
##dddddddx
##uuuuuugggl
##eetet
##tteeeeeeeeeeeeeeeeeeeeeeeeeeeeeeee
##JJJJxFJ
##KKKE
##SSSSSzzzzzzzzz
##GGGGGGGGxxxxx
##yyyyyyfffiiiiiii
##QQQQQQQLLLLssss
##oobbbbbbbkPPP
##uuuuuuuuuuwwww
##uuujjjQQQQ
##Fppj
##LLA
##EEEEFEEEEE
##LLssssuuuuugggg
##MMMMMtttttttttttttttttt
##CCCU
##qqqqqqTTTTTTT
##LLLsFsss
##QQoVVVVVyy
##orrrryyfff
##MMMMMMMMMMMMMMMnn
##EEEEEEEEEEEEEEEEEEEEEEEEE
##SSSSoor
##QQQQQooVVV
##lllccccx
##LLsssswwwwww
##DDDUUUUUUU
##gFPP
##GGGGGGGGUUUUU
##tttttnF
##QQLLLsssgg
##RRRRRRRRRRC
##yyyyDDDDDii
##yyyppppjjjj
##QQQooVVVVV
##mmmmmmmmmmmmnnnnnnnn
##mmmmmee
##yyyyyyyppjjj
##ddddddx
##AAAAAAfffff
##ttttttttttttttet
##KKKKKKKKKE
##dddddddddr
##uwwwwwwww
##mmnnnnnnnnnnnn
##rrAAAA
##rrrKKKKNNNN
##yyyyyA
##uuuuuggglllll
##zzzzzzzzzzOOOOOO
##uuuuuuuuugww
##Fwn
##MMMMnttttttttt
ntttt
##KEEEEEE
##bHHHk
##lQooV
##BBBBxxxxx
##llllccccccx
##mmmmmmmmmmmmmmmmmmmmmmmmmmnnnnn
##ugggP
##JJJJJJJxxVVV
##uuuugFggg
##mF
##rPPPPPP
##drrrrrrr
##CCCCCCCCCCC
##ccccccccccccccc
##mmmmmmmmmmmmmmmmmmmmmmmmmmmmmmmmmmmmmnn
##BBBBBBxxrr
##VVVyDD
##AAfffff
##hhhnnnCCCCCC
##GGGGGGGGGGGxxxx
##LLsssF
##pppjjjWWWW
##yyDDDUUUU
##FSSa
##RRRRRRRRRRCCC
##FAffff
##QQbbbbb
##KKE
##RRMMMMM
##KKKKE
##oVVppjj
##DDDDDssss
##AAAAAAAfPPP
##eeeeeeeeeeeeeeeeeeeehhhhhhhh
##mnnnnnnnnnnnnn
##rHHHHHHHHHk
##LLLsssggw
##mnmmmmnn
##pppjjwww
##WWWFWW
##BBBBBBBBBxxV
##yyyyyyyfffii
##wV
##AAAAwwww
##BBBBXXXXXX
##HHHHKK
##QQQJJ
##EEEEEFEEEE
##KKKKKKKO
##OOOOOOOOOvv
##uuuuuggwwww
##oxF
##eeeeeeeehhhhhnnnnn
##PPPrrr
##CCCCCU
##MMMMMMMnFnn
##KKKKKEEEEEEEEEE
##rrrrrrrrff
##eeeehhhhhhnnnn
##mmmmmmmmmmnFnn
##MMyy
##pppD
##rrrAA
##HHHHHIF
##AAAAAAPPPP
##aaaaaaGG
##GGGxF
##iiiiiSaaaaaaaa
##llllccccx
##pppgg
##EEEEEEEEQ
##KKKOOOOOOOO
##aaaGGGG
##yfffiiiii
##pyy
##oVVVVppppjjj
##MMMMMMMttt
##EEEEEEEEEQ
##obbkkkQQQ
##AAAfffff
##Qobbbbkkkk
##eeeeeeeeeF
##yyyyDDDDDiiiii
##SE
##lTTTTTTTTTTTTTT
##yyyFn
##KKKKKKKKKKKKKKKKKKKKK
##ooVVVI
##pppjjjWWWWWW
##cccccUUUU
##mnnnnCC
##qqqqqqqqqTTTTTTTTT
##mmmmmmmmmmmmmmmmmmmmmmmmmmmmmmmmmmmmmmmmmmmmmmmmmmmnF
##rHHHHII
##TR
##lJJJJ
##rrHHHHk
##JJJJJxxrrrr
##BBBBBBUUUUUUUU
##BBBBBBBxVV
##ppppjjFj
##mmmmmmmmmmmmmmmmmmmmmmmmmmmmmmmmmmmmmmmmmmmmn
##eeehhhhhnnn
##zzzzddddddd
##mmmmmmmmmmmmmmmmmmmmmmmmmnnnnn
##yyyyffiiiiiiii
##uuwwwwwwww
##WNN
##aaaGGGGG
##cccccxxxVV
##mmmmmmmmmmmmmmmmmmmmmmmmnFn
##kkkQQQQQoo
##AAAAffP
##QobbIIII
##ypppjjjj
##RQQQQ
##HIF
##aaN
##KKKKKKKNNNNNNNN
##lllllFl
##CCCCCF
##nnnnnnnCCC
##mmmmmmmmmmmmmmmmmmmmmmmmmmmmmmmmmmmmmmmmmmmmmmmmmmmmnF
##wMMMMMMMMMMM
##MMMMnFn
##AAAs
##VVVyyyppjjjj
##mmmmnmmmmn
##Fyyff
##mmmmmmmmmmmmnFnn
##yyyyDDDiiiiiiii
##ooHHHHHHHHHk
##uujjjjjj
##bHHHkk
##Lp
##bbbkkSSSSS
##mmmmmmmmmmmmmmmnnnnnnnn
##BBBxVVV
##LLLssuuuujjj
##RRRRRRRRCCCCCCCC
##kPPPQoVV
##yyDDDssss
##FzzzOOO
##RMMMMMM
##QSS
##ujF
##LAAAAF
##IIr
##ooLLssssss
##LLLsssgggQQQQ
##UUUQQ
##cccccccxxV
##LLLLF
##tnttt
##aaaaGGGGGG
##zzzddddddd
##EEEEEEEoVV
##obbbIIIssss
##XXXkk
##oLLLssswwww
##MMMMMnttttttttttt
##BBBBxxLLsss
##lllllcccccccccc
##LLsssuuuuugggg
##rrrrrK
##oobbkkkQQ
##oobbbbbbbkkk
##IIIIIIIIIIIII
##zzzzzzzzzzzzOOOO
##KKKKOOOOO
##LLLsssswwwwwww
##TTTG
##lllllcccccccxx
##JJJVVVV
##qqqqqqF
##uuuuuuuuggglll
##fj
##zzr
##BBBBxxrrr
##RRRRMR
##AAAAAAAAAAAAAAAfff
##LLLsssuuuuuuuugg
##ppppjjjjQQQ
##Lssssgggg
##HHHHHkkll
##FVVyy
##ij
##UUQ
##RRRFR
##EEEEErrrrrr
##bbbbbbIIssss
##QQLLLssssuuuggg
##uugFs
##PPPQo
##oobbbbbbbbbII
##HHHHHHHHK
##QLLLsssuuuuggg
##uuuuuuggww
##zr
##aaE
##hhnnnnn
##qqMMMMMMMMMMMM
##ooOO
##sssugggg
##ppppFjj
##lllTTTToo
##qqqqqqT
##eeeeeeeeeeeeeehF
##oorrAA
##BBBBBBBBBUU
##xxLLssssggg
##oXXXXXX
##BxxVV
##eeeehhhhhn
##LLFss
##uuuuuuuuuuugF
##AAAAAAAAww
##JJJJJJJJJJJJJJJJJJ
##cccUUUUU
##EEEEEEFEEE
##oVVVVyyyyyyyy
##KKKKKKKOO
##yyyyyyyfffiiiiii
##eeeeeeeeeeeeeeeeeeeeeeehhhhhhh
##qM
##BBBBxVVV
##oFT
##GGGooV
##cccccxxxV
##JJJJJJJxxxV
##HHHHkkll
##eeeeeeeeeeeeeeeeeeeeeeeh
##zaaaaaa
##pggj
##KKKKKKKKO
##KKKKKKKKEEE
##AAAAAAAfPP
##pppjjjjjQ
##yyfffi
##pPPPPl
##ppDD
##rrKKKNNN
##RRRRMMM
##TTTTTTTTTTTTTTTTTTTTTT
##MMMMMMMMMMmnn
##ooVVVVyyyyyyy
##uuuuugggl
##ppkkQQ
##oLLLsssswwww
##pppppjjwww
##So
##bF
##RRoVV
##eeeeeeeehhhhnnnn
##ccccxVVV
##eeeeeeeeeeeeehhhhhhhhh
##qqqqqTTTTT
##LLAAAAAAAAAAfff
##FTToo
##zOOOOOvvv
##pnn
##ppgP
##MMMMMMMMtttttttttttttttt
##HHHHHHIF
##bbbbbIk
##EEEEEEErrrr
##mmnnnnCCCCC
##wFw
##KKNNNoVV
##EEFEEEEEEE
##lllccccccxxx
##qqqqqqqqqqqqqqqqqq
##ttttttttttn
##SSSzorr
##zOOOOvvv
##SSGGGGGG
##yyyypPPP
##LLLssssww
##KKKzzzz
##RRRRRRy
##IIIIIIMMMMMMMMM
##aaaaaaaaaaG
##Lpppp
##LAAAAAfff
##JJVVV
##PPorr
##dddN
##pppjjw
##oorrAAAAff
##Frff
##oVVVyypppjjj
##kRRR
##EEorr
##KKKKzzz
##iiiWWW
##MMMMMMMnnnnnn
##KKKKKKEEEEEEEEEE
##KKKKKKKKKKNN
##Dyy
##BBxxxxx
##yyyyyAfff
##eeeeeeehhhhhnn
##oLAAAAAAAAff
##FSSSSS
##KKKKKKKKEEEEEEEEEE
##gFuggg
##SSSSSSzoo
##QLLLssssgg
##yyyyDDDUU
##HHHHHHHHHHII
##UQF
##XXkk
##yyyFff
##obbbbbbbbbbkk
##yyyyyypppjjj
##eeeeeeeeeeeeeehhhhhhhhh
##lllllllcc
##uuuuuuuuuggggg
##coF
##Lx
##gjjjj
##KKOOOOOOOOOO
##DDDDUUUUUU
##SSSQ
##oVVVAPPPP
##oVpp
##GGGGGGGGGGUUU
##KKKKOOOO
##fffS
##obbbbkkkQ
##hhhhhhn
##ccccccccccccxxxxx
##zOOOOOOOOOO
##RRRRMM
##mmmmmmmmmmmmmmmmmmmmmmmmmmm
##ttttteeeeeeeeeeeeeeeeeeeeeeeeeeeeeeee
##yDDDDUUU
##HHHHHHHHHI
##KSSSaaaaaaaaa
##ppppjFjjj
##DDyy
##ooHH
##mmmmmmmmmmmmmmmmnnnnnnn
##oVVVppppjjjj
##mnnmmnn
##MMMMnttttttttttt
##ppFjjjjj
##KOOOOOOOOOOO
##MMtttttttttttttt
##RRRRM
##MMMMMMnFnn
##GGGGGGGGcc
##ccccccxxxVV
##mmmnnCCCCC
##XXXk
##teee
##ToooV
##rrAAAAAff
##JJxxrr
##rrrHHH
##QoobbbII
##cccxxxVV
##zzzzzzOOOOOOOOOO
##MMMMMMtttttttttttttttttt
##MMMMMMMMMMMmmmmmn
##orAAAff
##mmmnnCCCC
##rrrrrrrKKNNNNNN
##lTToo
##JJJXXXXXXXX
##RRRy
##MMMMMMMMMtttttttttttt
##uuuuuuuugggll
##FSSSaa
##Fppppp
##QO
##HHHHIF
##VVVpppjjj
##MMMMMMMMnFnn
##yyyyyyDDDDiiii
##mmnCCCCC
##oobbbIkk
##AAffPP
##OFOO
##JJJJJJJJJxxxxx
##pssssggg
##RRRRRRRRRRCC
##gff
##eeehhhhhhhhh
##eeeehhhhhnnnnn
##RRr
##lllToo
##ttte
##mnmmmmmmmn
##WWWWWTTTTT
##oobbbbbbkPPPP
##Ka
##BCC
##AAAAAAfP
##rrrrrrF
##KKKKKKKKKEEEEEEEEEE
##rrrrrrrrrrrr
##AAfPPPPP
##uuuuuuuuuuj
##LLLFLss
##Fdd
##oXXXXXXXXX
##QV
##aaO
##QQRRR
##llTTTTTTTTTTTTTT
##qqMMMMMMMMMM
##zzzzzzzzdd
##fFPP
##oobbbbbIIssss
##oobbbbbkPPPP
##mmmmmnnnnnnnnnn
##eeeehhhhn
##ooR
##llllcccccccxxx
##aaaaaaaaG
##lllTTTTTTTTTTTTTTT
##AAAAAAAAF
##LLLsssuuuuuuuuuggg
##JJJUUUUUUUU
##IIIyyffff
##yyyDDDDDiiiiii
##TTTTooVVV
##yyyynnn
##ccccxxxV
##BBBBBUUx
##BBBBBBxxLLsss
##VVVyppjjjj
##IIIyyppjjj
##uuuwwwwwpjj
##mmmmmmmmnnnnnnnnn
##ooI
##qqqqUU
##QQQQobbbbbb
##QQQVV
##ppjlll
##oVVVVk
##mmmmmmmmmmmmmmmmmmmmmmmmmmmmmnnnn
##oooVVyy
##Fwy
##oLAAAAAAAAAff
##RRRRy
##fffl
##wwwg
##oVVVpppj
##MMMMMMMMMMMMmmmmmn
##rrrrrKNNNNN
##EEEEEEEFEE
##VVVyypppjj
##oobbkkkkQQQQ
##LLLLssssuuuggg
##ugwwwwww
##tteee
##ccccxxxVV
##pppppppppjjjj
##ooVVDDDD
##QQobbIII
##oorrAAA
##LLLLsF
##fN
##llQooV
##mmmmmmmmmmmmmmmmmmmmmmnnnnnn
##obbbbIIIssss
##oVVVVpppjjj
##MMMMMMMttttttttttttttttt
##eeeeeeeeeeeehhhhhnnn
##KKKKKKKKKKEEEEEEEEE
##ppppjww
##LLsp
##FMh
##mmmmtttt
##LLLAAAAAAA
##JJJBJ
##MMMMMMMMMmnn
##QoVVVpp
##HHHHHkkl
##tntttt
##IIIyyppjjjj
##Kzzzzz
##pRR
##LAAF
##mmnmmmmmn
##OOOOOOOVV
##llllcccccxxVV
##qMMMMMMMMMMMMMMMM
##nFnnnnnnn
##yyyyypppjjjjj
##pppjjWWWW
##WWWWWWWWTTTTTT
##yyyffii
##uuuuuuugggl
##mmmmmmmmmmmmmmmmmmmmmmmmmmmmmmmmmmmmmmmmmmmmmmmmmmmmmnF
##uuuwwwwwwww
##llllccccccccxxx
##HrF
##BxVV
##mmhhhhh
##KKEEEE
##AAAAss
##rrryfff
##lllTTTTTTTTTTTTTTTT
##SSSSSGG
##BBBxxxxx
##yyyyyyppjjjj
##ooVVVppjj
##gFjj
##XXXXXXXDD
##mmmmnmnn
##SSSSaGGGGGG
##pDDDi
##MMMMtttttttttttttttttt
##JJJJJJJJJJJJJJJxxx
##QTTTT
##mmmmhhh
##ssssuugggg
##sssggP
##mmmttttttt
##KKKEEE
##lllllccccccxx
##bbbbbbkPP
##MMMMMMMMMtttttt
##HHHHHHHHIIIII
##HHHHkkl
##xVVVVyyy
##Ta
##pffP
##KKOOOOOOOOO
##mmmmmmmmh
##TTTTTzzzzzz
##EEEEEEEEEEEWW
##IIIIIIMMMMMMMMMMM
##QQoVVVVyyyy
##KKKKKKKKKKEEEEE
##FHkkk
##Ul
##wgw
##LLsssuuuugg
##oobbbbIk
##AAAAAgPPP
##ttttttttttttte
##Ek
##Udd
##rrHHHHHHk
##ssssgggg
##mmmhhhh
##MMMttttt
##oVVpppjjj
##oobbbbIIIssss
##oooLLsssss
##QooVVkkk
##kkSSSSaaaaaaa
##IIIyffff
##MMMMMMnttttttttt
##ugFggg
##hhhnCCCC
##AAAAr
##LLLpp
##lllllooVVV
##WWWWWF
##RUU
##mmmmmmmmmmmmmmmmmnnnnnnn
##JJJVVV
##nnnnnnq
##llllllU
##yyyyDDDDDi
##Ipp
##zoV
##rrKNNN
##eeeehhhhnnnn
##llllccccccxxx
##eeeeeeFt
##RRRRRMR
##rrrrrrKKKKNNNNN
##LAAAAAAAAAAAAfff
##fkPP
##orrrryff
##GGGGGGGGGGUU
##LLsFsss
##rHHHHf
##jq
##aaaGGG
##lllllTTTTToo
##mmmmmmmmmmmmmmmmmmmmmmmmmnFn
##oLLsssggg
##eeeeeeeeehhhhhhnnn
##LLLLLssssss
##OOOOOOOOOOOOOOOOOOO
##JJJJJJJJxxV
##JJJJJJJJJJJJJJxx
##MMMMMMMmmn
##KKKKKOOO
##qqqqqqqUU
##MMMMMMMMMMMMMMnnn
##oorrrAAff
##eeeeeeeeeeeeeeeeeeeeeeeehhhhhhh
##mmmmmmmmmmmnFnn
mmn
##Szzzzzzzzzzz
##GooF
##rAAAff
##KEEEEEEEE
##IIyyyy
##llllQQQ
##KKKKKKz
##yDDDDsss
##rFrrr
##FbIIIII
##MMMMMnM
##SSzzzzzOO
##eeeeeeeeeeeeeeehhh
##RMMMMMMMMMMMM
##BBXXXXXX
##LLpppp
##wwppjj
##bbbbF
##SSzzzzzOOO
##JxVV
##TToooV
##rrAff
##SSSGGGGGGGx
##oVVVppppppp
##BBBBBBBBBBBBBBx
##LLLsssggwww
##LLssswwwwww
##llllllQoo
##oobbbbbkkkk
##mmnnnCCC
##eeeeeeeeeeeeeeeeeeeeeehhhhh
##fi
##bbkkkSSS
##LLLssssugwwww
##eeeeeeeeeeeeeehh
##LLLsp
##QooVVyyy
##Lsssssuggg
##bbHHH
##ssgg
##ccccxxVVVV
##zzzOOOOOvvvv
##OOOkv
##BBBBBBBBBBBBBBBxx
##QQQorrrrr
##xFUU
##orAAAAff
##dddddO
##yDDDsss
##FSSaaaaaa
##SSzorrr
##uuuugFg
##pppppjwwww
##VrF
##SSSSoF
##qqqqqqqTTTTTTTTT
##mmnnnCCCCCC
##mmmnnnCCCC
##uuuuuuuuuwwwwwww
##FbbIIIII
##iiiiiSaa
##XXXXXXXXXXXIIII
##mmmmnnnnnnnnnnn
##uugwwwwww
##zzzzOOOvvvv
##QQQQR
##wwwf
##MMMMMMMMMmmmmmn
##mnnnCC
##rHHHHHHHHHH
##mmmmmmmmmmmmmmmmmmmmmmmmmmmmmmmmmmmmmmmmmmmmmmmmmmmmmmmmmmnF
##mmmmmmmmmmmmmnFnn
##bbbbbH
##rrrrrrKKNNNNNNN
##mmmmmmmmmmmmmmmmmmmmmmmmnnnnn
##mnnnnnCCCCC
##xxrrrff
##eeeeeeehhhhnnn
##Eorrr
##llllllllTTTT
##JJJJJF
##WWWEEEEEEEEE
##BBBBBBxxxVV
##mmnnCCC
##BBBBBBBBBBUUU
##aaaaGGGG
##pppPPP
##ppppFjjj
##KKKFK
##cccccccccccccxxxx
##zzzzzF
##LLLsssssuuugg
##yyyyyyyynn
##EEEEEEEEEEQ
##GGGGGGGGGUUUUU
##SSSSaaGGGGGG
##uuuuuuuuuuwwwwww
##ppsp
nmmmmmmmmmmmmmmmmmmmmmmmmmmmmmmmm
##nmnnnn
##JQQ
##wMMMn
##RRFR
##iiiiWWWWW
##mmmmnmmmn
##oLoF
##orrrryyyfff
##eeeeeeeeehhhhhnnnn
##GGoV
##JJJJB
##BBBBBxxLLssss
##LLssFss
##mmnnCCCCCC
##bbbbbbbbI
##yDDDUUUUU
##yyyyyyyyyyf
##FHIII
##SSSSSaaaaaaaaaaaaaaaaa
##RQRR
##oIII
##kb
##WS
##AyA
##llTToo
##ooHHHHHHIII
##rrryyyyyfff
##LLLssssuuuuuuuugg
##nnnnnnCCCCCCC
##LLLssFss
##sssssuuugggg
##QoVVy
##BBBBBBBBBBBxxxxx
##llcccccxx
##ssssuuugggg
##KKKvvv
##sssssuuuuuuggg
##VVVyyDDDDi
##mmmnFnnnn
##JJJJJJJJJxxVV
##ggPQQ
##Errrrrrr
##kRRRR
##Uxxr
##ggggw
##pppppuuuuuuuu
##QQFVV
##BBBBBBBBBBBBxF
##SSSSaaaaaaaaaaaaaaaaa
##VVVkkk
##Qobbbbbbbkk
##RRRRRy
##MMMMMMFnn
##LLLLswwww
##zOOOOOvvvv
##JJBBB
##DDy
##DDiiiiiii
##yyyyFn
##SSSSSGGGGGG
##qqqqqqqqqqTTTTTTTT
##MMMMMntttttttt
##KEEEEEEE
##LLLAA
##zzzOOOOOOOOOOO
##BBBBBxxxr
##MMMMMMMMMMMmmmmmmn
##oorAAf
##ugggww
##FyM
##IIIyppjj
AA
##EQ
##yyyyyyyyyyyff
##bbbHH
##lllcccccccx
##qqqqqqqqTTTTTTTTTT
##aaaaGGGGG
##JJJJxxxxx
##QoFVV
##obbbIIIIII
##oobbbbbbbIIIIII
##aaaaaaaaaaaaaaaaaaaaaa
##OOOOOOOOvvvvvvvv
##rKNNN
##KEEEEE
##QQQQQooVVVV
##wwwwwf
##RRRMMMM
##pppjjQ
##MMMMMMnnnnnn
##BBBBBBxxLLssss
##Fyffff
##mnnnnnCCC
##KKKKKKKKKO
##eeeeeeeeeeeeeeeeeeeeeeeeeeehhhhh
##LLLssssuuuwwwww
##MMMttttttttttttttttt
##wwwwwyyff
##obbkkkkQQQ
##mmmmmmmmmmmmmmmmmmmmmmmmmmmnnnnn
##oLLsssswwww
##MMMMntttttttt
##ppfPP
##yyyMM
##lllQooVVV
##QoobbbbII
##ooVVVpppppp
##LLssssswwwwww
##ppppjjjjjjjjj
##bbbbbbbkPPP
##oorrAf
##MMMMMMMMMMMMMnnnn
##yyyDDDDiiiiiiii
##yyyffffi
##VVVVVyyy
##llC
##JJJJxVVVV
##iiiiiiiiii
##cccccccccccccxx
##JJJJJJJJJJJJJJJJJJJ
##QLLLssssuuuggg
##QLLLssssuuuuggg
##BBBBBBBBBBBBBBBBxxx
##EErrrrrrr
##zzOOOOOOOOOOO
##ggQQQ
##VVVVyyyyyyy
##aaaGGGGGGG
##SSSSSGGGG
##ttttte
##bbbbbbbbIIIIII
##mmnnnnnF
##dN
##mmeeeee
##rrAA
##JJxFJ
##TTTTzzzz
##SSSSSTTTTTT
##JJJJJJJJJJJJJJx
##obbkkkkQ
##fPPPQ
##WQ
##jQQ
##SSSGGGGGGGG
##oVVVpppjjjj
##QQoLV
##OOOOOr
##ppjlllll
##OOOOOOOV
##FSTT
##orrrryyyff
##FFq
##aaGGGGGGG
##UUUUEEEEEEEE
##lllQooV
##RRRRRyy
##fiii
##RMR
##KKS
##KKEEEEEEEEE
##uuuuuuuuuuuuu
##DDDF
##mmnmnnnn
##LLLssuuuuujjj
##LLLLssswwwwww
##SSzzzdddd
##tttnnn
##CCCCCCTTT
##WWWFW
##VVVyyDDDDiii
##uuuuuggwww
##uuuuuuuuuww
##FzzzzOO
##mMn
##oHHHHk
##qMMMMMMMM
##KKzzzzz
##JJJJJxxLLsss
##fPPPQoVV
##zoHHHHHHHH
##QLLLsssuuuuuggg
##yffiiiii
##SSzor
##FOvvvvv
##OzOOOOOO
##Okv
##ooIIII
##SSSGG
##uuuuuuuugwwww
##MMMMMMMMMMMnnnnn
##eeeeeeeeeeeeehF
##MMMMMMMnMM
##SSSzzzzzOO
##eeeeeehhhhhhnn
##QQobbbbbkkk
##nntt
##VVr
##llllllllcccccccc
##obbbbIIsssss
##oVVkkkQ
##ooVkkkkQQ
##MMMMMMMMMMmM
##oLLLsssswwwww
##tntttttt
##QLLLLsssggg
##aEE
##LLLppp
##fffllll
##ppppjjjjWWWW
##mmmnnnCCCCC
##oVVVVVyyyyy
##obbbbbbbbk
##LLLLsssssggg
##MMMMMMMMMnMM
##AAAAAAfPPPP
##mmmmmmmnmn
##QQLLLsssswwww
##rVr
##aOO
##llloF
##BBBBBBBBxxVVV
##ooVVppkk
##orrryyyyff
##oHHHHHI
##eeehhhhhnnnn
##tnFnn
##yyyyR
##RRRRRM
##BBBBBxxxVV
##uugggw
##Lsssgggg
##kPPorr
##HHHHHHHHHIIIII
##ddddddddddF
##FbbI
##QobbbbbbbII
##kqqqqqq
##Lo
##JJUx
##BBBxxxV
##BBBxFBB
##WWWWWTTTTTT
##kkkQQQQQQQ
##zzzzzzzzzd
##LLAAAAAAAAA
##eeeeeeeeeeeeeeeeeehhhh
##ppsssuuuggg
##MMnM
##oVVVVVVI
##llllccccxxVV
nttttt
##QQzz
##ppppwwww
##eeeeeeeeeeeeeeeehF
##rrrrrAff
##LLLssgggQQQQ
##yyyfffiiiiiii
##oVVVyD
##SSSzzzzzzOO
##llllcccccxVV
##RRMMMMMMMM
##qqMMMMMMMMMMMMMMM
##KKKKEEEEEEEEEE
##ssswwww
##sssuuuuuuuuggg
##fffF
##LLLssssgggP
##ooVVVVkk
##fFP
##pppjFjjjj
##lQQoo
##yyyyyyyyffiiiiii
##Qb
##QQxx
##sssuuuuuuugg
##SSSor
##PPPPQoVVV
##bbbbbbbbbbbbkk
##mmnnnnCCC
##oVVVyyD
##MMMMMMntttttttt
##uuuuwwwwwpjj
##mmmmmmmmmmmmmmmmmmmmmmmmmmmmmmmmmmmmmmmmmmmmmmmmmmmmmmmmmnF
##JJxxr
##obbbbbbbbbIIIII
##uuuuuuwF
##VVVyDDDDi
##fPPPl
##dddddddNNN
##QLLLsssswwww
##dddddddddddddddddddddddd
##FOvvvv
##QLLVV
##fCCC
##FlTTTTTT
##QQLLLssggg
##XXXXXXkUUU
##FDDDD
##FIIIII
##Faaaaaaaaaaaaaa
##RS
##WSS
##QQEEEEEEEEEE
##ffWW
##kkkF
##rrrrryy
##DDDDDUUU
##mmmmmmhh
##SSSSaGGGGG
##HfF
##VVpp
##ggf
##SSSSSG
##SSSSSGGGGG
##ooVVVppppjj
##aaaaaGGGGG
##obI
##yyyyDDDU
##KKKKKKKKKKE
##HHHHHHHHHHIIII
##OzOOOOOOOO
##lTTToo
##yynnnn
##QQrrrrrr
##aaaaGGG
##yyyypjj
##QQQQorr
##QoHHHHHHHH
##yyypjj
##KKKFNNNN
##LLLsssuuuuuugggg
##bbbbbkkkSSS
##BBBxxVVV
##kkkkQQQo
##BBBBBxxrrr
##OOOOOOOv
##ttttttteeeeeeeeeeeeeeeeeeeeeeeeeeeeeeee
##dddddddN
##lllllllTTTTTTTTTTT
##mmmmmmmmmmmmmmmmmmmmmmmmmmmmmmmmmmmmmmmmmmmmmmmmmmmmmmmnF
##QLLLLssggg
##aGGG
##HHK
##ffl
##UUUUQoo
##UUUUEEEEEEEEE
##ooVVVPPPP
##ooVyyyyyff
##llllllTTToo
##nnnnnnnCCCCCC
##ooVVVVk
##qqqqqTT
##LLLsgggg
##oVVVyyDD
##eeeeeeeeeeeeeeeeeeeeeeh
##hhhnCCCCCCC
##dxF
##ccccUUUUU
##sssF
##oVVyyDDD
##mmmmmmmmmmmmmmmmmmmmmmmmmmmmmmmmmmmmmmmnn
##sssssugg
##pjww
##MMMMMMMMMMMMMmmmn
##UxFUU
##rKKKKNNNNN
##teeee
##rryyff
##ffWWWWWWW
##KKKKWWWWWWWW
##MMMMMMMMMMmmmmmmn
##VVVyyDD
##Fh
##FGGGGGG
##JCC
##lG
##QQdddddd
##llllcccccccx
##oVVVpkkk
##bbbbbIIIssss
##UUUEEEEEEEEE
##AAAAAwwww
##KKKKKEE
##eeeeeeeeeeen
##Tx
##rrKKKKNNNNN
##qqCCC
##llllcccccccccxx
##LLLssssuugF
##EEEEEEEQ
##oVVVVII
##UUUUUUT
##GGGGGGGGGxxxxx
##LLAAAAAAAAAAAAff
##XXXXXXXXXXXXIII
##zOOOOvvvv
##bn
##QQQc
##LLssssuuuuuuuuggg
##LLLssswwwwwww
##JJJxVVVV
##oobbbIIIIy
##IFIIII
##Lsssuuuuggg
##FzzzO
##lllcccxVV
##RxF
##qxF
##lllFlll
##MMMMMMMMMnnnnnn
##mmmmmmtt
##QobbbIIIII
##KKKKKKKKKKEEEE
##yyyyyffffi
##XXXXXXXkU
##SQQQQ
##aazz
##JJc
##HHHHFk
##BBBXXXXXXXX
##QQQoLLsssss
##uuuuuuuuugwwww
##mmmmmmmmmme
##FEEEEEEEEEEEE
##MO
##tnnnnn
##WEEEEEEEEEEEEE
##QQUU
##EEEWWWWWWW
##RRRMMMMM
##yyyDDDDUU
##cccccccccxxVV
##SSaaaaaaaaaaaaaaaaa
##eeeeeeeeeeeeeeeeeeeeeeeeeeehhhhhh
##uuuuuugFgg
##MMttttttt
##eeeeeeeenF
##RRRRyy
##obbbbbbbbbbIII
##lllllooo
##mmmmmttt
##ppppjjjjWWWWW
##obbkkkQ
##eeeeeeeeeeeehhhhnn
##LLLLsgg
##uuuuuuuuuuwwwww
##Qobbbbbbk
##eeeeehhhhhhnn
##QQLLLLsssggg
##SlS
##WWWWFWW
##QQQQobbbbbbbb
##EEEEEEEEFE
##QQQFQ
##ccccccxxxV
##mmmmmmmmmmmmmmmmmmmmmmmmmmnFn
##QQQQQQQQQQQQQQ
##ppppppujjjj
##MMMMntttttttttttt
mnn
##RCCCCCCCCC
##rAAAAff
##iiWWWWWW
##ppppppppjj
##rrrrrrKKKKNNNNNNN
##SSzzzzzzOOO
##IHIIII
##SSTTTTTTTTT
##BBBBUUUUUUUU
##yyyyyM
##JJJJJxFJ
##mmmmmmee
##MMMMMMMMMMMmM
##GGGGGGGGGGGGx
##QQQQQQQQQo
##WWWWWWWWWTT
##eeeeeeeeeeeeeeeeeeeeeeeeeehhhhhh
ynn
##vNN
##JJJJXXXXXX
##VVVpppjj
##uuuuuuwwwwwppjj
##CCCCCCCCoo
##MMMMnM
##MMMMMMntttttttttt
##hhhnnnCCC
##RTT
##Ayyyy
##WWEEEEEEEEEEEE
##LLLsssugggg
##JJJJJJJJU
##ooVVVAPPPP
##dddOO
##BBBBBBxxxr
##QQQQQT
##BBBBBBBxxxVV
##ttttttttte
##rrrrrrrKKKNNNNN
##QQLLLssssuuuuggg
##FKKN
##QoVVVVVI
##MMMMttt
##WWQ
##zzzzOOOOOvvv
##LLLssssuwwwwww
##MMMmn
##AAAwwww
##KKKKKKKKNNNNNN
##pppjjjU
##LLLsssssuugggg
##QFV
##oVb
##RRRRRRRy
##oobbbbbbbk
##LVVVyyyy
##QQobbbbbbIII
##BBBBXXXXXXX
##TTTTTTTTooo
##lllcccx
##QQQobbbkk
##mmnCCCC
##HHHff
##BBBBBxVVV
##BBBBBBxFB
##oobV
##FQoVVV
##RSR
##lllcccccccxxx
##oVVVPPPP
##tttttttttee
##LAAAAAAAAAAAf
##pppppuuuujjj
##BBBBBBBBBBxxVV
##rHHHk
##BBC
##SSSoF
##sssssuuuugg
##zE
##rHHHHHHf
##RRx
##JJJJUUx
##tttttttte
##QQQrrrr
##QoobbbbIIII
##TTTTTzzzz
##yyyyyyyDDDD
##TTTTTTTooVV
##eeeeeeeeeehhhhhn
##oobbkkkkQQ
##mmmmnnmn
##rKNNNN
##teeeeeeeeeeeeeeeeeeeeeeeeeeeeeeee
##llccccccccxx
##yyypp
##AAAAAAAAAAAAAAAAAff
##oVVVyyyyDDDD
##Lssssuuuuuuggg
##obbbbbbbkPPPP
##orrrrrfff
##MMMMMMMMMMMnM
##Apsss
##UUUUEEEEEEE
##uuuuuuuuuuuuuuuugg
##mmmmmmmmmmmmmmmmmmmmmmmmmmmmmmmmmmmmmmnn
##mmnCCCCCC
##XXXXXDD
##BBBBBBBBBBBBBBBxxxx
##mhhhhhhh
##nmmnn
##fSSSS
##SQQo
##Fhh
##lccccccxx
##mmmmmmmmmmmmmmmmmmnnnnnnn
##uuuuuuuuuuuujjj
##UUUEEEEEEEE
##LLsssuuuuuuuugg
##gFuuggg
##MMMMMMMMMMmmmmmmmn
##EEEEEEEEErr
##VVVyyppppjjjj
##KKKKKKOOO
##pssssuugggg
##Szorrr
##IIIyypppjjjj
##QQobbbkkkk
##RRyy
##tttte
##LLLssssgww
##Qookkkk
##SSSSSFS
##ddddddddx
##ooVVVppj
##sssssuugg
##FnM
##oorrff
##ppjjjjjii
##mmmmmmmmmmmmmmmmmmmmmmmmmmmmmmmmmmmmmmmmmmmmmmmmmmmmmmnF
##uuwwwwppjjj
##pfj
##TTTTzzzzzz
##MMMMMMMMmmmmn
##bbbIkk
##eeeeeeeeeeeeeeeehhh
##yyyyyyyM
##JJJJJJJUUUUUUUU
##LLLLFss
##zzzzOOOOvvvv
##JJJJxxLLsss
##LLLpss
##lllcccccccccc
##zzzoo
##VVVyp
##BBBBBBBUUUUUUUU
##mmmmmmmmmmmmmmmmmmmmmmmmmmmnFn
##Lsssuuuuuggg
##JJJJJJJJJJxxxxx
##QooVVVVI
##ynnnnn
##MMMq
##EEEFEEEEEEE
##KKKKKKKKOO
##eeeeeehhhhhhhhhh
##orHHHHHHkk
##BBBBBBBBBBBUUUUU
##QQQoVVVyyyy
##QlQQQQ
##mmmmttttt
##QoLVV
##EEEEEErrrrrr
##HHHHHHHIF
##obbbbbIIIIy
##ddddddrrr
##pppppuujjj
##QQLLLssswwwww
##eeeeeeeeehhhhhhnnnn
##REE
##dNNNN
##JoVVV
##RRRn
##BBBBBBUUx
##cccccxxVVVV
##QQQQQLLLssssss
##eeeeeeeeeeeehhhhnnn
##Frf
##FQQo
##QGG
##bbIIssss
##ccB
##GGGGFGG
##LLLssssuuwwwwww
##MMMnnnnnn
##KKKEEEEEEEEEE
##QQQobbbbbbbbb
##QQQobbbbbkkk
##EEEEEEEEEWWWW
##eeeeeeeFt
##xxrrAAff
##iiiiiSaaaaaaaaa
##GoV
##TGGGGGG
##mmtttttttttt
##tteeee
##zzooVV
##llTTToo
##EEEEFEEEEEE
##ooVppp
##RRRRRVVV
##sssssuuuuugg
##pppjPP
##VVVyyyDDDDiiii
##mmnnnmn
##MMMntttttttttt
##Lpp
##OOk
##rryyyff
##TTTzzzzz
##LLsswF
##MnMM
##ppFpjjj
##Fyyyynn
##OzOOOOO
##eeeeeeeeeeeeeeehh
##ccxVVV
##LLLp
##sssuuuugg
##uuugwwwwww
##bbbbbIIsssss
##pppjjjQQQQQQ
##mmmnCCCCC
##KKKKKzz
##RRRRRRVV
##KKKKKKKEE
##FrI
##FllTT
##oHHHHIIII
##oX
##Hkkkk
##jU
##lCC
##ddN
##bbbbkkkQQQ
##SSSSQoo
##mmmeeee
##ppppwww
##uuuuuuuugww
##uuuuuuuugwwwww
##cccxxxV
##UUUUUT
##RRRRRMM
##llllllUU
##mnnnCCCCCCC
##tnttttttt
##AAAAAAAAAAAfF
##Xx
##BCCC
##bbbbbbbbbbkkk
##KKKOF
##ooVyyyyyyfff
##bbbbbbbbkkSSSS
##SSSzzzzddd
##rHHHHIII
##bbkkkSSSS
##nnnnmn
##AAAss
##qqqqqqqqU
##rrrrrrKKKKNNNN
##BBBBBBBBBBBBxxxxx
##IR
##lTTTToo
##lcccccccxx
##BBBBXXXXXXXX
##llllcccx
##ooVb
##mmmmmmmmmmmmmmmmmmmmmmmmm
##fPPll
##pppppuuujjj
##orrrryfff
##ooHHHHkkk
##llllTTTTTTTTTTTTTTTTT
mmmn
##FKNNNNN
##RRMMMMMM
##AAAggPP
##ttteeeeeeeeeeeeeeeeeeeeeeeeeeeeeeee
##ugggQQ
##QQLLLssssgggg
##HHHHkll
##dddddddddrr
##eeeeeeenF
##LLsggg
##mmmmmmmmmmme
##OzOOOOOOO
##oHHII
##JJXXXXXX
##BBBBUUx
##yyyppppjjj
##uuuuuuuuuuuuuuuuggg
##cccxxVVVV
##pppjjjWWWWWWW
##mmmnmmnn
##HHHIF
##QFQQQQ
##VVVyyDDDDiiii
##HHHHHklllll
##yyyyyyyyynn
##pFjjj
##yrf
##Diiii
##bbHHkk
##VVyyyDDD
##GGGGFG
##sssuuuuugggg
##lllQQoo
##LLLsssgggQQ
##oVVVVppppjj
##BBBBBJ
##BBBBBBUx
##SSzzzzOOO
##SSSzzzdddd
##RRRRRRRRRRRCCCCC
##bHHkk
##spF
##ffiiiiiiii
##CCCCGG
##QQQoorrr
##ppjjjl
##TTTTTTF
##LLsssssuuugggg
##orAAAAA
##yyDDDDiiiiiiii
##tnttttt
##MMMnttttttttttt
##obbbIIpkk
##Fxx
##EEFEEEEEEEE
##ssssgg
##CCCCGGG
##mnnCCCCCCC
##rrrrrrrKKNNNNN
##KKKKKKKOOO
##QQLLLssssgg
##ppppjjjjjWWWW
##Mw
##AP
##VVVVpkk
##rrryyyyyff
##obbbbbbbbbbIIII
##QQQoobb
##LLssssggP
##nnnnnqq
##LLLsssggww
##yyyyyyyDDD
##BBBBBBBxxr
##FSSSa
##FAfff
##Rnn
##AgPPPP
##ooHHHHHHII
##ssssuuuuuugg
##uuuuuuuuwwwwwww
##yyyyyppj
##Qoobbbkk
##LLsssssuwwww
##orrryyyyfff
##Ffi
##lllcccccxVV
##ryyyy
##JCCC
##VVyDDDD
##ssssgF
##llllooVVV
##rrrKKKKNNNNNNN
##ppjjMMMMMMMMMMMM
##mmnmmmnn
##pppjjjiii
##uggwwwww
##yyyyffPP
##uuuuuuuuugwwwww
##LLFLs
##Saaaaaaaaaaaaaaaaaa
##zzzzzzzzzzzzzOO
##fvvv
##Flllll
##bbbbIIIIIII
##KKKKWWWW
##QQQobbbbbbII
##aaaaaaaGG
##RRRRRRyy
##oorAAAAAf
##Fnnf
##GGGGGGGGGGUUUU
##uuujjjjQQQQ
##GRR
##MxF
##SSSSSoF
##oVVppppjj
##LLLsssuuwwwww
##oobbbbIkk
##TTTTTTzzzzz
##obbbkkkkQQQ
##LLsssssuuuugg
##yfffii
##psssuuuggg
##obbbbbbbbkPPP
##eeeeeeeeeeeeeeeeeeeeeeeeeh
##KOOOOOOOOOOOO
##BBxVVV
##XXk
##ssssuuuugggg
##VVVF
##rrrrrKNNN
##obbbIIIy
##JJJJJUUx
##PPPPPQLLLsss
##HHHHHkklll
##oVVVyyppjjj
##pkkkSSSS
##Qorrrrrff
##LLLssssuuuuuuuuuggg
##ppjjjq
##EEEEEEEEEQQQQ
##zzzzzzzdddd
##rrrrrrrKKKNNNNNNN
##QobbbbIIssss
##psssuuuuggg
##FSSSaaaaa
##FzzOOOO
##QoHHHHHHHHk
##PPPrr
##LLLsssuujjj
##wwwwwpppjjjj
##LLLssggw
##JJJJJJUx
##WWWWWWWWTTTTTTT
##HHHkkll
##SSSSSGGG
##mmmnmnnn
##oorAAfk
##VVVyyyDDDDD
##Fyyffff
##Fyyyf
##uuuujjjQQQQ
##oOOO
##HkPPP
##mmmmeee
##oVVVD
##EEEEEEEEEEER
##Fzo
##JoVVVV
##gggwww
##nnnff
##MMMMMMMMMF
##MMMMMMMMMttttt
##oobIIIII
##LLAAAAAAAAAf
##rrrrrrrrf
##obbbbIIpkk
##Dpjj
##bbbbbkPP
##WWWWWWWTTTTTTTTT
##VVVyyDDDDii
##oorAAAfff
##eeeeeeeeeeeehhhhhnnnn
##LLAAAAAAAAf
##GGGGGGGGGGGGxxx
##Dppjj
##rrryyyffff
##oVVVDD
##yyyyyyDDDiiii
##pppjjjQQQQQ
##ppjjjWWWWWW
##BBBBBxxF
##zzzzzzddddd
##KKKKKKEE
##oorrrf
##pPPPPll
##MMMMMntttttttttttt
##kqqqqqqq
##pDDDDiii
##nnFn
##OOkv
##JJFJ
##WWFW
##MMMMMMMMmnn
##Qoobbbkkk
##UUUEEEEEEE
##HHHHHHHKK
##MMMMMMMMMnFnn
##cccccxxLLsss
##tttttteeeeeeeeeeeeeeeeeeeeeeeeeeeeeeee
##yyDDDDUUU
##VVVyyypppjjjjj
##QQoVVkk
##pPPPPPP
##TTTTTTTTTTTTToo
##MMMMnttttttt
##QQq
##BBXXXXXXX
##mmmmmmmmmmmmmmmmmmmmmmmmmmmmmmmmmmmnnn
##JJJxxxV
##rrrrrffff
##ooVkkkkQ
##RRRRRMMM
##EEEEEEEEEFE
##GGGGGGGF
##eeeeeeeeeeeehhhhhnn
##pppppujjjj
##pjjjQQQ
##MMMMMMnttttttttttt
##QQobbbbbbIIII
##JJxxVVV
##ddrrrrrr
##MMMMMMMMttt
##UUUUEEEEEE
##SSSTTTTTTTTT
##zzzOOOOvv
##GGGGGGxxVVVV
##obbbbbIIIssss
##oobbbkkkkQQQQ
##QooVVy
##bHHHHH
##bHkk
##qi
##QQLLV
##GGFGG
##TTTTTTzzzz
##EEEEEEEEEVVVV
##HHHHkklll
##oooVVy
##QobbbbbbI
##KKNNFNN
##ooorAAff
##KKKKEE
##ehhhhhhhhhhh
##JJJxxxxx
##LLsssgggP
##MMMMMnFnn
##ooVVVVyyyyyyyy
##oLLLssswwwww
##MMMMMMMMnMM
##oHHHHHHI
##mmmmmmnnnnnnnnnn
##QQooVVVyyy
##WWS
##bbbbIIIssss
##BBBxxrrr
##EEEEELLLLsss
##mmmnmmmmmn
##qqqqqqqqqTTTTTTTTTT
##fPl
##Lsssssuuggg
##oLLLsssgg
##MMMMMnttttttt
##eeeeeeeeeeeeeeeeeeeeeehhhhhhhh
##SSSzzzzdddd
##Fnnnnnnnnnn
##BBxFBB
##MMMMMMMMFn
##bbbIIsssss
##obbbbIIIIyy
##PPPPQor
##oVVVyyyyDDD
##ppjjjWWWWW
##fFn
##LAAAAAAAAAA
##HHHHHkll
##oLAAAAAff
##JJJJJJJJJJUUUUUU
##EEEEEEEEEEEEEEEEEEEEEEEEEE
##mem
##eeehhhhhhnnnn
tttttttttttt
##fiiiii
##zddddddd
##MF
##XV
##lTTTTTTTTTTTTTTTT
##SSooo
##wwpppjj
##JJJJXXXXXXX
##yyyyyppjjjjj
##mmmmmmmmmmmmmmmmmmmmmmmmmmmmmmmmmnnn
##UUUT
##ooVVVAPPP
##oobbbbbbbbbkk
##AAAAAAAfffff
##psssuuggg
##yyyyyyyyyyyn
##QEEEEEEEEEEEEE
##pkkkSSS
##LAAAAff
##kkQF
##bbbbbbbbbbIIII
##SSSSGGGGGGGx
##jjjjjjj
##EEEorr
##oVVVAPPP
##oFr
##JJJJJJxxLLsss
##EEEEEEEEEEEQ
##LAAAAAAAAAAAAAAff
##FllTTT
##QQQoVVVVVyy
##TTGGG
##PPFPP
##nnnt
##HHHHHHFk
##WWWWWWTTTTTTTTT
##mmnmmmmmmn
##obbbIIsssss
##MMMMMMMMMmmmmmmn
##BBBBBBBBBxxxV
##SSzzzddd
##BBBBxV
##IHI
##Fppppjjjjj
##MIF
##BQx
##zzOOOvvvv
##HHIF
##llllQQQQ
##MMMMMMMMnnnnnn
##fffSSS
##LLLsssuugg
##MMMMMMMMMmM
##iiiiiiWWWW
##HHHHHHHHHK
##uuuuwwwwpjj
##FOOOOO
##eenn
##LLsssuugggg
##pppjjjWWW
##oVVVVppj
##FVyyyyyyy
##uuuuugFg
##eeeeeeeehhhhhhhhhh
##ddddNNNN
##RRRRRRMR
##nnnnnnnCC
##Fnm
##yyffPP
##Fttttttttttt
##rKKNNNNNN
##fflllll
##yyyyyyyyyyyfff
##tttttttteeeeeeeeeeeeeeeeeeeeeeeeeeeeeeee
##ooVkkkkQQQ
##MMMMMMMMMMMmnn
##MMMMMMMMMMMmmmmmmmn
##mmmmmmmmmmmmmmmmmmmmmmmmmmmmmmnnnnn
##QQQQQQoVVV
##oorrA
##CCCCCCCCTTTT
##GGGGGGGGGxxVV
##QLLLssssgggg
##SSSSaGGGGGGG
##aoo
##Plllll
##Mf
##hnnnnn
##Diii
##ppFpjjjj
##qqMMMMMMMMMMMMMMMM
##LLssssuwwwww
##ugggggg
##uuuuuggw
##KKKKKKKKKKKN
##uuuwwwwpjj
##FzzzzOOO
##ppRR
##JJUUUUUUUU
##bbbkF
##LLLsssuuuuujjj
##pppjjjjll
##EEEEEEEEEEQQQQ
##QoVVVVVyyyy
##uuuugggl
##EEEEEEEEEEEEW
##SSSzzzddd
##FAAAA
##Kaaa
##OI
##rrKKKKNNNNNN
##mmmmmmmmnFnnn
##KKKKaaa
##SSSSGGGGGx
##oVVppppjjj
##EEEEEWWWWW
##EEEEEEEEEVV
##fFk
##QoVVVVpkk
##FSSaaaaaaa
##eeeeehhhhhnnnnn
##eeeeeeehhhhhhnn
##yMM
##uujF
##llllS
##rrrryyyffff
##MMMMMmn
##obbbkkkkQ
##uuuuuuuggglllll
##Vpkk
##JJxVVVV
##fffWWWWWWWW
##PPPQF
##ooVVyyyyDDD
##sssssuuuuuugg
##oobbbkkkQQQ
##oobbbbbIIsssss
##QQQQLLLssssggg
##hhnnCCCCC
##zFa
##RRRVVVyy
##uuuuggglllll
##FlQQ
##mnnnnnCC
##FllT
##IbIIIIIIII
##FkkP
##eeeeehhhhnn
##FAAAff
##NW
##HbH
##Mmnn
##rrAAAAA
##rrFrr
##LLLsssuuuuuuuuugg
##GGGGGGUUU
##CCCCCCoF
##gFwwwww
##pppjjk
##orAAAA
##LLLLssF
##fPPPPQ
##LLLLFsss
##QooVVyyyy
##KKKKKKKKKEEE
##QQQLLLLsssggg
##GGGGGGGGGGGGxx
##lllcccccxxVV
##azzzz
##Dii
##ttnnnn
##OOkvvvv
##MMMMMMMMMMMMmmmmmmn
##llllllTTTTTTTTTTTTTTT
##oorrAAfff
##ppppppujjj
##SSzzzzOO
##uuuwwwwppj
##BBBBBBBBBBBBBBBBxxxx
##JQx
##Ud
##lQQQQQQQQ
##QoHHHHH
##rrrA
##GGGGGGUU
##QQobbII
##mmmmmmmmmmmmmmmmmmmmmmmmmmmmmm
##qqqqqqqqqqTT
##mmmmmmmmnmn
##KKKKKKKKKKKEEEEEEEE
##eeeeeeehhhhhnnnnn
##mttttttttttttt
##pDDDDiiii
##bbHHHk
##ppI
##KKr
##MMMMnnnnnn
##UUdd
##LLLssssuuuuuugggg
##QoobbIII
##ttteee
##AAAAAAAPPPP
##qqqqqqqF
##KKKKKKKKKOO
##eeeeeeeeeeeeeeeeeeeeehhhhhhhh
##MMMMMMnMM
##uuuuwwwwwwww
##ooHHHHHIIII
##pII
##Di
##lToo
##uuA
##RRVVVyy
##HHHHkkkQQ
##rrrAfff
##obbbkkkSSSS
##llllllTTTTTTTTTTTTTTTT
##mnnmmmmn
##llllcccxF
##oXXXX
##SSoorrr
##llQQoVVV
##rryyyfff
##LLLssssuuuuuuuuugg
##rrrrryyyyfff
##uuuuuuwwwwppjj
##EEEEEEQ
##aaaaaGGG
##KKKKKOOOO
##Fntttt
##pssssuuuuuuggg
##oooVkkk
##SSSzzzzzOOO
##SSSaaaaaaaaaaaaaaaaa
##EEEEVVVV
##oorrrrff
##IIIIIIIIII
##yyyyyFf
##ccccccccxxVVV
##ooVVyDDDDD
##MMMMMMMMMMMMmM
##ppjjjqq
##MMMMMnnnnnn
##WWWEEEEEEEEEE
##WWWFWWWW
##orAAAAAff
##ppppjjjWWWW
##FSzzzzzz
##Fry
##QQQLLLssssuuggg
##QQQQQobbbbbbbb
##lllccccxxVV
nmmn
##KEEEEEEEEE
##AAp
##bbbbbbbbbbIII
##KKKKOOOOOO
##ddddrrrr
##rrryyyyffff
##oobbbbIIIIy
##UUUUUEEEEEEEE
##llllllccccccccc
##JJJJJxxVVVV
##QFQQQ
##oobIIssss
##SSSSSSSaaaaaaaaaa
##UFUUU
##Faaaaaaaaaaaaaaa
##rAAAAAAAA
##JJJJJJJJxxxV
##QQQQQQLL
##qqqqqqqqqT
##ppsssuuggg
##KKKKKKKKKKO
##QQobbbbIIIII
##oHHHkk
##kqqqqq
##US
##BBBBxxxr
##AAArr
##RRRVVVy
##MMMMMMMMMMMMnFn
##uuuuuuujjjjj
##JJJJJxxxVV
##TTTTTTTF
##bbbbbbbIIIIIII
##QQQQQQQLLLLsssss
##LAAAAww
##TTTGG
##iiiiiWWWWW
##JJJJJxxF
##sssssuuugg
##eeeeeeeeeeF
##pppjjjjjQQ
##qqqqqqTTTTTTTT
##WWWWWWWWWT
##oVVVyyDDDDD
##eeeeeehhhhhhnnnnn
##RQQQ
##zaaaaaaa
##bbbbIkk
##nnnnPPP
##Qoobbbbkk
##JJJJJJJJJJJJJJxxxx
##yyyyyyM
##tttttttttttte
##MMMMMttttttttttttttttttt
##QFx
##ccccccxxLLsss
##QLLLsssgwww
##tttttttttttttttet
##KKFNNNNN
##aaoo
##MMMMMMMMmmmmmn
##iiiWWWWWW
##TTTTTTzzzzzz
##mmmmmmmmmmmmmmmmmmmmmmmmmmmmnFn
##eeeeeeeeeeeeeeehhhhhhhhh
##ppppjjjjjWWWWW
##mnnnnnnCCCC
##KKKKKKKKKKKEEEEEE
##FzzzOOOO
##uuuwwwppjj
##Fob
##eehF
##LLVVy
##fffiiiiiii
##uuuuuuuugw
##lllccccxx
##oVVyDDDD
##oVVVVppp
##JJJJJJJxVV
##Fnnff
##HHHHHHHkllll
##zzzzzzzzzzOOOOOOO
##uuuuuuuuuugw
##eeeeeeeeeeeeeeeeeeeehhhh
##MMMnttttttttt
##mmmmmmmmmmt
##uuuuuwwwwwpjj
##mmmmmmmmmmmmmmmmmmmmmmmmmmmmmmmmmmmmmmmmmmmmmmmmmmmmmmmmnF
##rHHHHHf
##LoVVV
##QQTT
##mmmmmmmmmh
##SSSSoorr
##LLssssugF
##zzzrrrrrr
##bbbbbkkkQQQQ
##ttteeee
##mmmmmmmmmmmmmmmmmmmmmmmmmmmmmmmmmmmmmnnn
##LLLsssssuwwww
##JJJJJxVVVV
##GGGGGGGGxxV
##QoVVpp
##QQoVVkkk
##orrrrf
##XXXXXXXXXkk
##llllccccxF
##llllcccxVV
##Svvvvv
##bX
##LVVVVy
##bbIIIssss
##ddE
##zzzzOOOOOOOOOOO
##wwwwyyff
##UUUUT
##EEEFEEEEEEEE
##mmmmmmmmmmmmmmmmmmmmmmmmmmmmmmmmmmmmnnn
##EEEEEFEEEEE
##ppjjjiiii
##ttttteet
##Lsssgg
##QLLLsssuuuggg
##JJJJJJJJJJUUU
##fSSS
##rryyyyfff
##bbbHkk
##LLLssssgggQQQQ
##oVVyyyyDDDD
##JJJBB
##ffffWWWW
##rrrrrKWWWWWWW
##HHHHklllll
##psssuuuuuggg
##FFR
##oVVVyyppjjjj
##yyyyyDDDDiiiiiiii
##rVyy
##QQQLLLsssgg
##MMMnM
##PPPPQLLLss
##mmmmnFnnnn
##OPPPP
##KKOOOOOOOOOOO
##RRMMMMMMMMMM
##rrrrAfff
##EEEEEEEEoVVV
##eeeeeeeeeet
##zzzzzzzOOOOOOOOOO
##cccccccxxxVV
##MMMMMMMMMMMMMmmmmn
##QLLLssswwwww
##uuuuuuuuuuggggg
##MyM
##eeeeeeeeeehhhhhhnnn
##oLLLLs
##pFj
##bbHkk
##SSoF
##QQB
##zzOOOOOOvvv
##rrHHHHkk
##VVVppppjjj
##SSSSzzzzzzzzzzz
##MMMMMMMMmm
##ppppppppj
##ooVVVyyyDDD
##mnnmnnnn
##BBBBBBBBBU
##ffPllll
##OOOOOOOOOOOOvvvvvv
##eeeeehhhhhhnnnnn
##uuwwwppjj
##Aj
##aaaaGGGGGGG
##JJJJxxF
##ooVVyyDDDDD
##oVVVVpk
##bbbbbbIIsssss
##AAAAAAAfP
##XXXXXXXXXXXXII
##JJJJJJJJJUUUUUUU
##SSzzzzddd
##nC
##Sv
##orrrrrrff
##Kaa
##lSSSzz
##AAn
##RRMMMMMMM
##llloo
##LLssssuuuuuuuugg
##ddddddddNN
##ccccccccccccccxxx
##sssssgg
##oVk
##tttttte
##VVVyyyD
##yyyyyyffP
##pPPPorr
##kf
##UT
##Lpss
##AAggg
##qqx
##ttttnn
##mmmmmmmmmmmmmmmmmnFnn
##RRRRMMMM
##XXXXUUU
##EEEEELLLsss
##ooVrF
##mmmnnmmn
##qqqqqqqqqqTTTTTTTTT
##oLLssssuuggg
##QUUUU
##qxx
##EEEEorr
##sssuuugg
##PPPQQQ
##zzzorrr
##mnmmnnnn
##mmmmmmmmmmmmmmmmmmmmmmmmmmmmmmmmmmnnn
##KKKKKKKKKKKKKKKKKKKKKK
##JJJXXXXX
##pppjjjMMMMMMMMMM
##XXXXXXDDD
##zzzzzzOOOOOOOOOOO
##QFoVV
##CCCCCCCTTTTT
##EEEEEEEEEER
##rVy
##uuuwwwwwwppjj
##oLAAAAAAAAAAff
##llllccccccxxVV
##GT
##TTTToF
##pppjjFjj
##ppppjjjji
##kkSSSSSaaaaaaaaa
##FbX
##SzzzzOOO
##ccccccccccccxF
##FDiiii
##VyyyDDDD
##eem
##RRoVVV
##SSSSTTTTTTTT
##lllcccccccccxx
##mmmmmmmmmmmmmmmmmmmmmmmmmmmmmmmmmnnnn
##CCCCCCF
##AAAAAg
##eeeeeeeeeehhhhn
##eeehhhhhhnnn
##ssssuuuugg
##LLssssuuwwwww
##oVVpppppp
##ooVrr
##sssssuuuugggg
##XXXXXXXXIIIII
##EEEEEEEEEEQQ
##QQLLLsssswwwww
##kkkSSSzz
##BBBBBBBBBBBUUUU
##uuuwwwwwppj
##pffPP
##uuuuugFggg
##sgF
##llTTTTTTTTTTTTTTT
##wwMMMMMM
##ccxxVVV
##ssswwwww
##QoobbbIIII
##mmmmmmmmmmmmmmmmmmmmmmmmmmmmmmmmnnn
##ppjjjMMMMMMMMMM
##LLLsssssuwwwww
##GGGGGGGGxVV
##mmnFnnnnn
##QooVVVyyyyyy
##QQoorrrr
##oHHHHHHHHHHk
##eeeeeeeeenF
##KKKKKKKKKKKEEEEEEE
##oVVVyyypppjjjj
##FWE
##QLVVV
##KEE
##bIIIIIIII
##LO
##qMq
##MMFn
##yyypppjjjjjj
##BBBUUx
##kkkkkk
##ppjjFj
##ccccccxxVVVV
##EEEEEEEEEEWWW
##eeeeettt
##oHHHHHHHHHHH
##zzzzzzzzzzzzzOOO
##nCC
##rAAA
##DDP
##EEEEEEEEQQQQ
##LLLsssswF
##obbbbbIkkk
##ttttttnF
##eeeeeeett
##SSSSaaGGGGG
##ooVVVyDD
##oLLsssssuggg
##QooVVVVVI
##rrKKKKNNNN
##RRQR
##sssgwwww
##LLLssssuuugF
##KKKKKKKKEE
##llllllF
##eeeeeeeeeehhhhnnnn
##yyyyyDDDiiiiiiii
##KKNNFN
##eeeeeeeeeeeF
##SzzzzzOOO
##Sorrrr
##GooVVVVV
##KKFKK
##BBBBxxrrrr
##HHHHkkSSSS
##KKKKvvvvv
##RRRRVVVV
##lllllccccccccxx
##ooVVVDD
##aaaaaaGGG
##LLsssssgF
##obbbbbkkkQQ
##BBBBBBBxxLLssss
##FlTTTTTTT
##oobbbbbbbIF
##ooorAAAff
##FRRRRRR
##LAAAAAF
##bbkkkQQQ
##BBUx
##llSSSzzzz
##JJxxrrr
##mmmM
##PPPPQoVVVV
##ooVVyyyyDDDD
##JJJFJ
##LLsssssuuuuugg
##ooVVVVpkk
##oobbkkkQQQQ
##pssssuuugggg
##tttttttttttttte
##oLLssssgg
##SSzzzzzOOOO
##eeeeeeehhhhhhhhhh
##SSSSzzzzzOO
##ryr
##qR
##bbbkkkkQQQQ
##ooVVyyyyyyyyyy
##HHHHHHHHHHHHHk
##eeeeeeeeeeeen
##ttttttte
##rAAAAAff
##zzrrrrrrrr
##ffNNNN
##MMMMMMMMMMMMMMMMMMMMMMM
##MMMMMMMMMMMMMMMMMn
##lllQoVVV
##rrrrrKKKNNNNNNNN
##zzzzzOOOOOOOOOOO
##rrrrrryyfff
##ttttttttttte
##mmmnnnnCCCC
##ppppppuujjj
##uuujjjjjj
##RJ
##rKKKKNNNN
##WWFWWWWW
##UUT
##VVVyyyyDDDD
##EEEEEEEEQQ
##EEEEEEEEWWWWW
##yyyyynnn
##UUUUUEEEEEEE
##obbbIIIIyy
##LLLLsssuuuggg
##bbbbbbbbbbbbbbbb
##WWWWWWWWTTTTTTTT
##QQQLLLssswwww
##oHHHHHHHf
##QQobbkkkk
##lQQQLLLssss
##LAAAAAf
##nnnnCCCCCCCC
##bbbbbbIk
##GGGxxVV
##oVkkkkQQ
##gggPQQ
##yppj
##KCC
##kU
##yyMM
##ttttett
##yyyyFf
##JJJJxxVVVV
##QQQQQobbbbb
##eeeeeeeeeeeeeeeehh
##WWWWWWF
##pppppujjj
##IIIIIIIMMMMMMMMMM
##SSSSaaG
##eeeeeeeeeeeeeeeeeeeeeeeeh
##IyI
##mttn
##aGGGGGGG
##oG
##bkkSSSS
##bbHHHkk
##zzzaa
##aaaoo
##Qookk
##BBBBBBBBUUUUUUUU
##oVVpppj
##obbbFkk
##oorAAfff
##mmmmmmmmmmmmmmmmmmmmmmmmmmnnnnnn
##VVVyyyDDDDiii
##pssssugggg
##uuuuwwwwwppj
##FfPPPP
##Ryyy
##oRRR
##JVVVV
##lcccccccccc
##VVyyyyDDDD
##SSEEEEEEE
##BBBBF
##mmmmmmmmmmmmmmmmnFnn
##EEEEEEEEFEE
##AAAAAAAAAAAAAAAf
##pppjjjjlll
##bbbbbIkk
##zzzzzzzzOOOOOOOOO
##cccccxVVV
##obbbbbbbbIIIIII
##KSSSaaaaaaaaaa
##ToooVV
##jw
##TTGGGG
##mmmmmmmmmmmmmmmmmmmnnnnnnnn
##llllllllTTTTT
##rrrHHHH
##bbbbbkkkQQ
##mmmnCCCC
##pppjjMMMMMMMMMM
##wwwwwwpjj
##UUUUUUTT
##QQQQQLLLL
##Lssssgg
##Fnnmn
##yffPP
##Qobbbk
##ppsssuuuuggg
##CCCCCCCCCTTT
##Svvv
##QoHHHHHH
##EEEEEEEEoVV
##oVVVppk
##qqqMMMMMMMMMMMMMM
##eeeeeeeeeeet
##FSaaaaaaaaa
##yyyffPP
##pppppjjjQQ
##QorrAAAff
##KKKKKKKKKKKO
##obbbbIIkk
##SzzzzOOOO
##men
##SzzzzzOOOO
##eeeeehhhhhhhhhh
##mmmmmmmmmmmmmmmnFnn
##Fyyfff
##Qdddddddddd
##llcccccx
##SSSzzzzzzzzzzzz
##TTTzzzz
##ccccccccccccccxxxx
##yyyyyyDDDDiiiii
##rrrrrKKWWWWWW
##aaaaaGGGG
##GGGGGcxx
##VVVyyppppjjj
##orrAA
##tttttttttte
##mnnnnnCCCCCC
##KKKKKKKKKKEEEEEEEEEE
##OrO
##SSzzzzzzOO
##eeehhhhnnn
##KFK
##LVVyyy
##bbkF
##MMMMmn
##VVVp
##uuuuuuuuuuuuuuu
##MMMMMMMtttttttttttttttttt
##QFUU
##LLssgwwww
##oorrAfff
##Lssssuuuuuugg
##MMMntttttttt
##MMMMMMnttttttt
##eeeeeeehhhhnn
##FMMM
##Vkkkk
##Pvvv
##cxxxxxx
##LAAAAAww
##BxFB
##eehhhhhnnn
##SSorrrr
##ooAAAAAA
##yyyypp
##VVVppj
##WWWWEEE
##QQQQQooV
##QQQoobbb
##BBBBBBBBBBBBBBBBBxxx
##pppjjjjjjjjj
##ooVVppppjj
##LLLssuuujjj
##EEEEEEEEEQQ
##KKKKKKKEEEEEEEEEEE
##yyyDDDUUU
##kkkQrrrr
##QQLLLsssuuuuggg
##oVVVyyyD
##pffiii
##pffiiiii
##OOFOO
##QQQobbbbIIIII
##Kdd
##yypppjjjjj
##ssF
##aaaaGGGGGGGG
##yyyyMM
##ssssuuuuugg
##LLLsssssuuuuuggg
##ppppjjjjWWW
##nnnnnnnC
##iiiiiivvvv
##VVVyyppj
##RRRRRRRRRRRRRRR
##Fbkkkk
##FzOOOO
##QobbF
##BBBBBxV
##eeeeeeeeeeeeeeeeehhh
##Qrrrrrrrr
##lTTTTTTTTTTTTTTT
##rrrAAfff
##QQQEE
##oVVAPPPP
##aaaaaGGGGGG
##lllllloF
##KKKKKa
##obbbbbIIsssss
##oobbIIIIII
##qqqqqTTTTTT
##QQLLLsssgwww
##qqqqqqqqqqqTTTTT
mmmmmmmmm
##QQQdd
##oVVVyyyyyyyyyy
##JJJJJJJJxxVVV
##UUUEEEEEEEEEE
##ffffWWWWW
##mmnmmnnn
##cccccUUUUU
##RRRRRRRRRRRCCCC
##QQLLLLssggg
##lccccccccxx
##eettttt
##GGooo
##mmmmmmmmmmmmmmmmmmmnnnnnnn
##yyyAffff
##PPPQQQQ
##QQoLL
##MMMMMMMMMttttttttttttt
##oFE
##Lsssuuuuuuggg
##FDii
##yyAAff
##BBBBxFBB
##VVVpk
##Qorrrrrrr
##rrrAAAA
##AAAPPPQ
##KKKaaa
##HHHKK
##LLLssuuuuuujjj
##orrAAAA
##obbbbbbIk
##HHHkllll
nnt
##QLLLsswwww
##oobbbbbbbbI
##fSS
##Fppjjjjjj
##VVVyyyyyyyyy
##SSSSl
##yyyyypPPP
##mnmmmnnn
##ooVVkkkQQQ
##wwwwwyyfff
##ppjjjrr
##yyyyyyyfF
##qqqqqqqTTTTTTTTTT
##zorrrrr
##QQLLLsssgwwww
##SSzzzzdddd
##RRRRRRRRRRCCCCCCC
##ooVVVVVVI
##FTTToo
##bbbIIIIy
##KKKaa
##pkkQQQQQQ
##FrII
##FSSSaaaaaa
##Lsssssuuuggg
##uujjjjQQQQ
##mmmmmmmmmnnnnnnnnn
##KKaaa
##GGR
##ooAAAA
##ffffii
##pppjjjQF
##zzzzzddddddd
##ooVyyyyff
##MMMMMMMMMmm
##AAAAAAAgPP
##yyyyyyyyppjj
##orrrAAAff
##pppppjjjjQQQQ
##zoO
##yyyyyyyffiiiiiiii
##SSzzzddddd
##ooVVVVVIII
##bHHHHHkk
##JoVV
##llQoVVVV
##tttteee
##BBBBxxxVV
##RRRRFR
##mmmtttttttt
##ppppgg
##QoobbbbbIII
##LLsssuuuuuuuuuggg
##oVVVVpppppjjj
##PPPPPQoVV
##RRRRRRMM
##EEEEEEEEER
##LLLLsssswww
##LLLLsssswwwwww
##BBBBBBBBBBUUUUUUU
##fCCCC
##WF
##yyppj
##QQddddddd
##zzOOOOvv
##zzOOOOOvv
##KKEEE
##MMMMFnnn
##LLLssssggwww
##oobbbbbbbbbbIIII
##EEEEEEFEEEE
##AAAAAAAPPP
##FpD
##lQl
##oHHHHHHHHIIII
##Fiiiiiii
##rkk
##zzFzz
##ooHHHIII
##BBBBxxLLssss
##ssssuuuuuuuggg
##orHHH
##yyyyyffPP
##lllllTooo
##llJJJ
##pppg
##kkkSSSSS
##ppppFjjjj
##LLLssssuugwwww
##ooVVA
##LLsssuuuuuugggg
##ppjjjQQQQQ
##PPPPPQF
##AAffk
##xxVkk
##zoHHHHHkk
##Fnnt
##ppsssggg
##pDDUU
##Myyy
##jww
##zzaaaa
##zzOOOOOOvvvv
##KKa
##bbbbkPPP
##yyyyppppjjj
##KKKKFK
##WWWWFW
##rrrrFr
##AAAggg
##BBBXXXXX
##JJJJJJJJJJJJJJJxx
##ooVVVyyyDDDD
##rrrrrKKKKNNN
##ppjjjjddddd
##EEEEEELLLLsss
##mmmmmmmmmmmmmmmmmmmmmmmmmnnnnnn
##QoVVVyyyyyyy
##oLLssssuggg
##BBBBBBBBBBBUUUUUU
##OzOOOO
##llllccccccccx
##Qkk
##zOOOOOOOOOOO
##llTTTToo
##EEEELLLLsss
##QoLLsss
##ffffWWWWWW
##JJJJJJxxxVV
##KKKKKKKF
##mmmmmmmmmmmmmmmmmmmmmmmmmmmmmmmmmmmmmmmmnn
##mmmmmmmmmmmmmmmmmmmmmmmmmmmmmmmmmmmmmmmmmnn
##FTTTTTTTTTTTT
##cxVV
##MMttttttttttttttt
##RRI
##mmmmmmmmmmmmmmmmmmnnnnnnnn
##rrrryyffff
##rrryr
##pppjjjjiii
##ppjjjjddd
##QLLLsssuuuuuuggg
##yyyyyyyfffi
##yyyyyyyyfffiiii
##FHHk
##QlQQQ
##pFjj
##lllTTTTToo
##zzzOOOOOvv
##ooVVVD
##AAAAAy
##LLLssgw
##rrrrrryyff
##QQLLLsssgggg
##kkkSSSSaaaaaa
##QQQLLLLssggg
##lCCC
##LLLssssggww
##zzzr
##ppjjjMMMMMMMMMMM
##xVVVyyyyyy
##XXXXXXXXXD
##MMMMMMntttttttttttt
##MMMMMMMntttttttt
##mtttttttttttttt
##llllooo
##CCCCUU
##QQQQoLLLsssss
##pppwwww
##oobbbbbbbbbbIII
##LLLsssssuuuugg
##obbIkk
##mnnnnC
##yyyyffPPP
##QQLLLsssuuuuuggg
##MMMMMMMMMMMMMMMnF
##KKKKKKKKKKKE
##GooVkkk
##zoooV
##BBQ
##RRMMMMMMMMM
##EEEEWWWWWW
##AAAAAAAAAAAAAAAAAA
##LLssssuuwwww
##TTTzzzzzz
##KKKEE
##UUUUUTT
##XXXXXXUU
##iiiiiivvvvv
##fPPPor
##AffPPP
##JJJJJJJxxrr
##ggPQQQ
##oooVVyyy
##oVVVyyppjj
##eeeeeeeeeeeeeeeeeeeeeeeehhhhh
##pDDUUUU
##pDDUUU
##Mynn
##FVVyyy
##oqq
##tttteet
##rrrKKNNNNNNN
##aaaGGGGGGGG
##SSSSSoooV
##RRRyy
##cccUUU
##LLssuuuuujjj
##BBBBBBxxF
##EEEEEEEEEoVVVV
##VVVypppppjjjj
##tttttett
##uggj
##pppppwwww
##Fyyynnn
##uuwwwwwpjj
##FDiii
##VVyyDDD
##GGoVVVVV
##KKKKOOOOOOO
##QQQQLLLssssss
##ppjjjll
##MMMMMMMmmmn
##obbIIIssss
##oorA
##pjF
##uuuuuuuuuugww
##BBBBBBBBBBBBBxF
##eeeeeeeeeehhhhhhnnnn
##lllcccxF
##QQobbbbbbII
##BBBBxxF
##yyyFfff
##obbbbIIIy
##lllQoVV
##yyyyyFn
##SSSSSzzzzzzzzzz
##pppjjjjWWWWW
##tttett
##JJJUUx
##LLLssgggQQ
##QQoVVVpkk
##psssgF
##FllTTTT
##mmmmmmmmmmmmmmmmmmmmmmmmmmmmmmmmmmmmmmmmmmmmmn
##eeeeeeeeeeehhhhhnnn
##mmmmtttttt
##BBQF
##JJXXXXXXX
##RRVVVy
##llllQQo
##rrrrKKKKNNN
##rrrAAAf
##RRRMMMMMM
##EEEEEEEFEEE
##AAAAAAgg
##nnnnnnnPPPP
##fPPPorrr
##oVVVyppjj
##oVVVyppjjj
##tntttttttt
##VVVVVI
##FLLLsss
##GooVVVy
##yyAA
##CCCCGGGG
##oobbbbbbbbbIIIII
##EEEEEELLLsss
##ppjFjjjj
##ccccccUUUU
##mmnnmmmn
##mnFnnnnnn
##qqqqqqqqqqTTTTTTTTTT
##eeeeeeeehhhhhhnnnnn
##oOOOOOvvvv
##rrrAAAAAff
##mnnnmnn
##QoVVVkkk
##QLLLsssswwwww
##pssssuuuugggg
##aaaaaaaaaaaaaaaaaaaaaaa
##MMMntttttttttttt
##MMMMMMMnttttttttt
##bkPPP
##bHHk
##Dn
##cQ
##USS
##aaGGGGGGGG
##jjQ
##QoLLLLsss
##VVVVppjj
##uuuuuuuuuuuuuugggg
##AAAAAAAAAAAAAAAAfff
##eeeeeeeeeeeeeeeehhhhhhhhh
##pppjjjMMMMMMMMMMM
##OOOOOOr
##EEEEEEEEEr
##obbIk
##KKKKKKEEEEEEEEEEE
##ppsssuuuuuggg
##bbbbbkkPP
##obbbIIsss
##SSSzzzzzzOOO
##eeeehhhhhhnn
##oHHHHHHHHHIII
##kqqqq
##AAAAggPP
##ssssuuugg
##RRRVVVyyy
##QQQobbbbbIIIII
##ooVyyyyyyyyy
##BBBBBxxrrrr
##uuugFg
##uuwwwwwwppjj
##UxFUUU
##JBBJ
##jii
##qf
##bbHHHHk
##VVF
##OOOOkvvv
##pppgjj
##rrrKKKNN
##oVVpkkkQQQQ
##EEEEEEEWWWWW
##ooVVVVIII
##bbbbbbbkkSSSSS
##mmmmmmmmmmmmmmmmmmmmmmmmmmmmmnFn
##KNNNNoVVV
##JJJJJJJxxxVV
##ppppjjjWWWWW
##mmmnnCCCCCC
##QoVVVVyyyyyy
##MMMMMMMMMMMMMMmn
##SSSSaaGGGGGGG
##HHHkkl
##oVVVVyppjj
##eeeeeeeeeeeeeeeeeeeeeeeeehhhhhhh
##JUUUUUUUU
##KKd
##mmmmmmmmmmmmmmmmmnnnnnnnn
##QoLLLsssggg
##pppjjjjF
##TTTTTTTzzzzz
##JJJJJJxVVV
##ttttteee
##ehhhhhnnn
##tttttttttttn
##yyffiiiiiii
##psssuggg
##mmnnnnnCCCCC
##eeeeeeeeeeeeeeeeeeeeeeeeeehhhhhhh
##eeeeeeehhhhhhnnnnn
mmmmmmmm
nmnn
##zOOOOOOvvvv
##kRRRRR
##uuuugwwwwww
##RRRRMMMMM
##rrrrKWWWWWWW
##QQQU
##ooVVpppjjj
##LLsssuuugg
##ppjjjjq
##TTTTTzzz
##LLsssssugF
##zzzzzzzzzdd
##pppppjjjQ
##ppsssuggg
##ddddddddddr
##SSSzzzddddd
##FzzzzO
##Fpppjjjjjj
##ppwwww
##JJQF
##KKKKaa
##KKKKOF
##lllSF
##LLssssuuuuuugggg
##TTTTTooVVV
##XXXXXXUUU
##orAAA
##pppjjjjjll
##yyyDDDiiiiiiii
##HHHHHHHklllll
##uuuuwwwwwwppjj
##lllccccccccx
##QQobbbbbbkk
##GGFGGGG
##KKKKKKKKNNNNNNN
##bbIk
##ccUUUU
##RRoV
##lllllllll
##wwwppj
##ffffWWWWWWW
##rrrrrKKWWWWWWW
##ppjjjjdddd
##ppjjjqqq
##ppjjjQF
##ppjjjWWWWWWW
##ppjMMMMMMMMMMMM
##oVVVVVVyy
##MMMMMMMMMMmmmmmmmmn
##TTTTTTTTTooo
##mmmnnCCC
##fPPl
##Qobbbbbbbbb
##uuuuuuuugggl
##Qcccc
##bkF
##ppkkkQQQQ
##QQQooVVVy
##uuuuuuuuuuuujj
##lllccccccccxxx
##yyyyyp
##KKKa
##mnmmmmmnn
##zzzzzzdddddd
##KKKKKEEEEEEEEEEE
##JJJJJJJxxr
##mmmnnmnn
##eeeeeeeeeeeeeeehF
##mmmnnnnCCC
##FaG
##SSSSaaaGGGGG
##QQobbbbbIIIII
##Qqq
##EoVVV
##QQC
##rryyyyff
##QQQLLLssggg
##oVVyyyyDDD
##mmmmmmmmmmmmmmmmmmmmmmmmmmmmmmmmmmnnnn
##iiiiiiWWWWW
##mnnnmmn
##eeeeehhhhnnnn
##Uddddddd
##tteeeee
##SSGGGG
##zzdddddddd
##MMMMy
##LLLA
##lllQQQo
##KKKFKK
##BBBBBBBBxxxVV
##mmmmmmmmmmmmmmmmmmmmmmmmmmmmmmmmmmmmmmnnn
##KKKKKOF
##pjjF
##oLLLssssuuggg
##yyyyyDDDDDD
##MMMMMMMntttttttttt
##pppppjFjj
##FDDDi
##HHkkkk
##RRQF
##eeeeeeeeFt
##KKKzzzzz
##RRRVVyy
##oobbbbF
##yyyyyyyMM
##oobbbIkkk
##Fynnnnn
##wFss
##ooFb
##MMMMMMMMMMMMMMmmn
##SSSSaaGGGG
##bbbbIIsssss
##JJJJXXXXXXXX
##mmmmmmmmmmmmmmmmnnnnnnnn
##SSSGGGGGGxx
##EEErrrrrrr
##ooVyyyyyyff
##pppjjWWWWWWWW
##MMMMMMMMMmmnn
##pjw
##MMMMMMMMMMMMMmmmmmn
##uuggwwwww
##KKKKKKKKKKOO
##HHHkll
##yyyyyyyffii
##ppFss
##FOvvvvvv
##eeeeeeeeeeeeen
##llllcccccxF
##XXXXXkUUU
##Fppss
##oOOOOvvvv
##QRRRRRR
##unF
##zzR
##wwyyyy
##HHHHHHHHHHHkk
##KKKKa
##rrrrKKWWWWWW
##PPPPLLLss
##yyyyyMM
##QoobbbbbIIII
##BBBBBBBBBBBBBBBx
##LLsssssuuuuuuggg
##JJJJJJxxVVVV
##FSz
##Lssssuuugggg
##oobkkkkQQQQ
##kPPPPPP
##eeeehhhhhhnnnnn
##eeeeeeeeehhhhhnn
##zzzzzzzzzzzzzO
##QVVVy
##MMMMttttttttttttttttttt
##SSSorrr
##qqqqqqqqqqqqqqqqqqq
##yyyyyyDDDi
##ppjjqqq
##iiiiiWWWW
##JJJJJxxxr
##GGGGGGGcxx
##oorAAAAAA
##oorAff
##FnCCCCC
##mmmmmmmmmmmmmmmmmmmmmmmmmmmmmmnFn
##mmnnnCC
##wwwwwwwppjj
##QQoVVpkk
##mmmmnnCCCCC
##iiiiiSaaaaaaaaaa
##FMhh
##nmmmn
##SCCCC
##SFl
##llllccccxx
##obbbbbbbbbbII
##uuuuuuuuuuuuuu
##lllcccccxxx
##zzzaaa
##KKKWW
##JJJVV
##llllllTTTToo
##bbbbbbbkkkk
##QoVVyyy
##obbbbbbkkkk
##cccccccxxxV
##SSSzzzzzO
##HK
##bbkkSSSSS
##ttett
##RRFRR
##zzzdddddddd
##oVVppk
##oVVyyyyyyyyy
##MMMMMMMMMMMmmnn
##oVFV
##pppppjjjjQQ
##QorHHHHHHk
##OOOOOOOOOOOvvv
##QQobbbbI
##fWW
##Fzzzzzzz
##EooVV
##Hfff
##bbkkkQ
##eeeehhhhhhhhhh
##ookkkkQQQQ
##UUddddddd
##OOOOOOOOF
##yyyyyyDDDDiii
##VVVyyyDD
##eeeeeeeeeeeeeeeeeehhh
##SSSzzzzzzO
##pDDiiii
##mmmmmmmmmmmmmmnFnn
##ooHHHHHkkk
##ErF
##zRR
##BBXXXXXXXX
##rrrryyyyyfff
##uuuuuuuuww
##wwwF
##QoorV
##mmmmmnnnnnnnnnnn
##JJJJJJxxF
##LLLLssssugggg
##ttttttett
##mmmmmmnmmn
##FlllTT
##FIIy
##oLLLsswwww
##KKNFNN
##fvvvv
##HkPP
##Mhhh
##WQQ
##bbIIIIIIII
##JJxxrrrr
##GGccc
##LLssssuwwww
##nnnnnnff
##oobbbbkkkQQ
##ppjjjQQQQQQ
##HHHkkkQQ
##MMMMMMMMMMmmnn
##yDDDiiiiiii
##IIIIypppjjj
##SSzzzOO
##SSSSaaaG
##MMMMnttttttttttttt
##obbbIIkk
##uuuuuugFg
##aTTT
##KEEEE
##cxxVVV
##llllcccccxxx
##rrrrKKKNN
##LLLssssuuuuwwww
##mmmmmmmmmmmmme
##KKKKKKKKEEEEEEEEEEE
##EEEEEEWWWWW
##HHHHHHHHHHHHHH
##GGGFG
##JJJJJJxFJ
##HHHHHkkQQQQ
##qqqqqqqqqTTTTTTTTTTT
##mmmnnnnCCCCC
##QobbbIIssss
##PC
##gwF
##EEoVVV
##AAwwww
##KKEEEEEEEEEE
##rrKKKNNNNNNN
##TTTTG
##yyyyyyypppjjj
##orryyyyfff
##tttttteet
##LLLLssgwww
##mmmnnnCCC
##Szor
##FIyy
##JJJJJJJJJJJxxxxx
##oLLLssgg
##fii
##rHHHHHHHf
##wgF
##iWWWWWW
##llllccccccccccc
##QoLLLs
##MMMtttttttttttttttttt
##HHHHHKSSS
##yyyyyypppjj
##KKKKKOOOOO
##lllllllTTTTTTTTTTTT
##XXXXXXXXXIIIII
##TTTTTTTTTTTTTTTTTTTTTTTT
##ooHHHHHHHHHH
##obbbbbkkPP
##Qobbbbbbbbkk
##qF
##QQooVVVVy
##rryff
##ooHHHHHHHHH
##bbbbkF
##ppppFj
##rrrrrKWWWWWW
##yyyyyyyD
##XXXXXXXIIIII
##QooVVVVVy
##oVVVyypppjjjjj
##mmmmmnFnnnn
##eeeeeeeeeeeeeeeeeeeeeeeeeeehhhhhhh
##Qbbbbbbbb
##ooH
##ookkkSSS
##ooVVVII
##ppjjjWWWW
##LLsssssuuwwww
##RRRRRRF
##cccccxxLLssss
##mmmmmmmmmmmmmmmmmmmmmmmmmmmmmmm
##hhhhhhhhhhhh
##OzOO
##ppppppjwww
##bHHHHHHk
##Mnnnnnnn
##ppFs
##QoLLLssssss
##UUUUEEEEEEEEEE
##kkkv
##lllllooVV
##GGGGGGcxx
##UUUTT
##JJJJJJxxrrr
##LLLLssgF
##uuuuuuggllll
##oLLLssssuggg
##FffPP
##yAfPPPP
##STTTTTTTTTT
##iWWW
##AAggPP
##QQbbbbbbbb
##llQQLLLssss
##oorrrrrr
##XXXXUU
##AAAAAAAAAAAAAffff
##mmmmmmmmmmmmmmmmmmmmmmmmmmmmmmmmnnnn
##HHHkkSSSS
##BBBBBBBxFB
##oobbkkkSSS
##Lssssuugggg
##QQLLLsssuuuggg
##KKKKKKKKKKKEEEEEEEEE
##pppppjF
##QTTTTT
##zOOOOOOvvv
##rAAAA
##rAAAAA
##ryyff
##llUUUUU
##llccccccx
##HHHHff
##IIIIyyy
##QQoLAAAAAAAA
##rrrrrKKKKKNNNNN
##LLsssssuwwwww
##hhhhhhnn
##tttttteee
##pjPPP
##MMMMMMMMMMMMMmM
##IIIIIIIyy
##LLLLsgggg
##mmmmmmmmmmmmmmmmmmmmmmmmmmmmmmmmmmmmmmmmmmnn
##ppppjFjjjj
##MMMMMnMM
##zzzzzzzzzzzOOOOOO
##SSzzzzOOOO
##yAffff
##JJJJJJJJJJJJJJJJxxx
##eeehhhhhnn
##Qbbbbbb
##Mr
##zzFzzz
##kkkkkQQQQ
##ssssuugg
##KKKKEEEEEEEEEEE
##pppjjjjWWWW
##PPPPPQQQ
##eeeeeeeeeehhhhhhhhhh
##BBBBBBBxxrr
##mmmnnmmmn
##pppppuujjjj
##QQoVVVVVyyy
##FSSzzzz
##oLLsssswwwww
##KKKKKKKKKKKEEEEE
##DDDDiU
##XXXXXXID
##mmeeeeee
##KKKKzzzz
##GGGGGGxxr
##UUUEEEEEE
##yyyyyyyyyyyyff
##wwwwwwpppjjj
##MMMMMMMMMMMMMnFn
##oVVVVVpkk
##IIIIyppjj
##SSSSaGGGG
##mmmmmmmmmmmmmmmmmmmmmmmmmmmmmmmmmmmmmmmmmmmmmmmmmmmmmmmmmmmmnFn
##oHHHHI
##oHHHHHHHI
##nR
##Saz
##Fyyyff
##qB
##EEEELLLsss
##rrrrA
##VVVVII
##QoobbII
##BBBxxrrrr
##ppjjjrrr
##EEEEEEEEEEEER
##aaaaaaaaaaaG
##LsssgF
##ppppppuuujjj
##GGGGGGGGGGxF
##SSzzzzzzOOOO
##Fyyyyynn
##uuuuuwwwwpjj
##SNNN
##mmmmmmmmmmmmmmmmmmnFnn
##KKKKOOOOOOOO
##yyyFf
##KKKvv
##mmmmmmmmmmmmmmmmmmmmmmmmmmmmmmmmmmmmnnnn
##MMMMMMMMMMMMmmmmmmmn
##ppjjqq
##GGGcx
##JJJJJJUUx
##eeeeeeeeeeeeeehhhhhnnn
##obkkkkQQ
##pFpjjj
##xxxVVVyyyyy
##mmmnnnnnnnnnnnn
##meeeeeeee
##lcccccxx
##rrII
##JJXXXXXXXX
##ooLLss
##yyyyppppjjjj
##LLLssssuwww
##AAAAAAAAwww
##BBBc
##ppjqqqqqq
##mmmmmhhh
##BBBBBBBxxxr
##mmnnnnCCCCCC
##KKKKKKKKKEE
##QQQLLLssssuggg
##uwwwwwwppjj
##lllccccccxxVV
##SEEEEEEE
##Fddd
##Qk
##lBBBBB
##tteet
##RRT
##bbbbkkkQ
##RRRRRRM
##eeeeeeeeeenF
##MMMMMMMMMMMmmmmmmmmn
##kPPPorr
##IIIIyyppjjjj
##pjkj
##CCF
##EEEEVVV
##GGGGcx
##wwwwyyfff
##QQQcc
##ddddddddN
##lllllccccccx
##ooVVPPP
##MMMMMMMMMMnnnnnn
##tttttttett
##mmmmnCCCCC
##Lssssuuuugggg
##oobkkkkQQ
##pppppjjjjQ
##pPPPQoVV
##ppppppuj
##BBBBBBBBBBBBBBBBxx
##hnh
##oOOOOvvv
##rAAAAAAAff
##ppfPPP
##lllQooVVVV
##mmmmmmmmmmmmmme
##oobbbbbIk
##mmmmmnmnn
##IIIypppjjjjj
##SSSSzzzzzzOO
##FHHkk
##Uxxrr
##EEoF
##QQEEEEEEEEEEE
##wwrrr
##ookkkkQQ
##EEEEEEEER
##QQQddd
##ggggj
##LLLsssgggQ
##ooVVVpppppjjj
##MMMMMMMMMmmmmmmmn
##Fnmmn
##QQQQQQQF
##ddddddddddddddddddddddddd
##KKKKKKKKKKKNN
##SSSSaaaaaaaaaaaaaaaaaa
##rKKKKNNNNNN
##KfF
##EEEErrrrrrr
##rrrrKKWWWWWWW
##uuuuuuuuuuuuuuuuugg
##uuuuuuuuuuuugF
##KKKFNNN
##QoobbbbbII
##mnmnnnnnn
##yyyyyyDDDDD
##RRRVVy
##rrrrrKKKKKNNNN
##AAAAAPP
##mmmmmeee
##MMMMMMttttttttttttttttttt
##sssssuuuuuuuggg
##hhhhhhnnnnn
##GGGGGGGGxxVVVV
##gwwg
##eeeeeeeeeeeeeeeeeehF
##oHHHHHHf
##SSaaaaaaaaaaaaaaaaaa
##OKvvvvv
##eeeeeeeeeeeeeeeeeeehF
##FKKNNNN
##rAAff
##ooAAAAAAff
##LLLssssuuuuwwwww
##LLLssssuuuwwwwww
##KKKaaaa
##KKKOOOOOOOOO
##SSSSSTTTTTTT
##JJJJJJJJUUUUUUUU
##LLsssssgwwww
##yyyyyyyyM
##ttttttttteeeeeeeeeeeeeeeeeeeeeeeeeeeeeeee
##kkSSSSaaaaaaaa
##lQQooVV
##IkkPP
##SSzzzzO
##eeeeeeeeeeeeeeeeeeeeeehhhh
##QVVVyyy
##JBBBBB
##vNNN
##rrAAAAAAff
##rrrryr
##sssuuuuuuuuuggg
##rrrAAf
##AAAAAAAAw
##ttteet
##RRRFRR
##MMMMMFnnn
##xVVy
##xVVVDDDD
##LLLFLs
##mmmmmmmnnnnnnnnnn
##eeeeeeeehhhhhhnn
##lllccccxF
##KKKKKKNNNNNNNNN
##FbbbIIIII
##Forrr
##rIII
##KEEEEEEEEEE
##TToooVV
##iiiiWWW
##AAAAAAAAfPP
##LLLsssuwwwww
##kkkkQQQQQQQQ
##EEEEEEFEEEEE
##MMMMMMmmn
##MMMMMMMMMtttttttttttttt
##LLssuuuujjj
##ccccccxVV
##mmmmmmmmmmmmmmmmmmmmmmmmmmmmmmmnFn
##QQQQQQoVVVVV
##zzzzzzzzzzOF
##IIIIyppjjjjj
##MMMMMnttttttttttttt
##FHII
##OKO
##KKNFNNN
##yyyyyyyyyyyyn
##fKKNNNN
##ggFP
##UUQQQQ
##QoHHHHHk
##AAAgP
##KKKKKKKKKKNNN
##LLsssuggg
##yDDDDUUUU
##pppppppppjjjjj
##FbH
##oVVVypppjj
##mmmmnnnCCCC
##oIIII
##Lps
##VVpppjj
##RRRRyyy
##LLssssuuuuuuuuuggg
##yyyyyfFf
##LLLsssuugF
##SSSSSSzzzzzzzzz
##rrrrrrKKNNN
##oVppkk
##mmmmmnmmmn
##pppppuuuuujjj
##uuuuuuuggllll
##FDDiiiii
ntttttt
##To
##wwwwyyyfff
##pppAAAAAAAAff
##oVVVI
##OOOOOOOOV
##mnmmmmmmmmn
##BBBUUUUUUUU
##aaaaaGGGGGGG
##bbbbbbkkkSSSS
##IIIIIIIMMMMMMMMMMM
##pFjjjj
##Frrff
##uuuuuwwwwwppj
##uuuuuuugFgg
##FMn
##SSzzzzzzzzzzzz
##EEEEFEEEEEEE
##PPPQor
##TTToooV
##LLLsssuuuwwwww
##CCCCCG
##oobbkkkQQQ
##uugggQQQQ
##kkkQQQQoVVVV
##ppppjjQQQ
##QLLLsssgggg
##ppppjjjjjWWW
##ppjPlll
##QQQQQoF
##JJJJJJJJJJJJxF
##ooHHHHHHHHIII
##FHHHH
##FJJJJ
##wwwwpppjjjj
##PPPPS
##CCCCCCTTTT
##cccXXXXXXXX
##mmmmmmmhh
##VVVyDDDDii
##yffiiiiii
##FSSaaaaaaaa
##GGGGGGGGGGU
##SSSSaaaGGGGGG
##Fbbk
##eeeeeeeeeeeeeeeeeeeeeeehhhhhhhh
##eeeeeeeeeeeeeeeeeeeeeeeeeeeh
##yyyyDDDDDiiiiii
##obbbIpkk
##KKKKNNNNNNNNNN
##EG
##llccccx
##obbbbkPP
##LLLsssugF
##QQQobbbbbbkk
##ooVVVpppp
##qqqMMMMMMMMMMMM
##LLLsssssgF
##RRRRRRRRRCCCCCCCC
##IIIIypppjjjjj
##SSSzorrr
##MMMMMMMMMMnMM
##eeeeeeeeeeeeeeeeeeeeeeeeeeeeehhhhhh
##VyyDDDD
##bbkkkkQQQQ
##WWEEEEEEEEEEEEE
##KKKKvvvv
##ccccxxLLsss
##rrrrKKKKKNNNN
##lllllcccccxx
##ooVyyyfff
##LLsssssgwww
##VVVyyppjjjjj
##LLLLssssuuuuggg
##FyD
##JJJJJJJJJUU
##qqqqqqqqqqqTTTTTT
##QQobbbbk
##SSSzzzzzzzOO
##Fyyyyyyn
mmnn
##EEorrr
##bbHHHH
##SSGGGGGGx
##QQRRRR
##fffQ
##zzzFzz
##oVVkkkkQQQQ
##mmmmmtttt
##yyyyyyypppjjjj
##VVVyDDDDDD
##LLLLsssuuuuggg
##uuuuuuuggww
##ttttttttttttttte
##FffP
##TFl
##tteeeeee
##SSQorr
##ookkkQQ
##HHHHHkkkQQ
##ffffWWW
##TTTTTzzzzzzz
##dddNNNN
##Fnhh
##obbbbbbIIssss
##mmnnnnCC
##pppppjjjjjjjjj
yyyy
##Fzzzzzzzz
##Mmmmn
##KKFNN
##QQQQQoVVVVV
##mnCCCCCCC
##OOOOOrr
##obkkkkQQQQ
##psssuuuuuuggg
##qqqqqqqqqqqTTTT
##ooVVyyDD
##KKKFNNNNN
##VyyyyDDDD
##rHHHHHII
##Bxxxxxx
##QQbbbbbb
##QQLLAAAAAAAA
##ccxxV
##mnm
##kkkkQF
##CCCCCoF
##pppjjjw
##LLLsssssuuugggg
##rrrrrrrKKKNNNN
##IIIyyppjj
##FDDDiii
##Rxx
##Pvv
##Ann
##zzaaaaa
##RRVVVyyyy
##ooAAAAAff
##rrrrHH
##uuuuuuuuuuuuug
##yyyyyfPPP
##EEEEEQ
##nnnnnnnnnnnnnnnnn
##JJJJJJxxxr
##mmmmmmmmmmmmmmmmmmmmmmmmmmmmmnnnnn
##RRRRRRRyy
##oLAAAAAAAfff
##SSSSSSSaaaaaaaaaaa
##QQQLLLssssgggg
##Ibkk
##FaGG
##Fqi
##eeeeeeeeeeeeeeeeehh
##Awwww
##KKaa
##QQQQooF
##mmmmmmmmmmmmmmmmmmmmmmmmmmmmmmmmmmmmmnnnn
##KKNNNNoVVVV
##yyyyyyyppjjjj
##ppppjjWWWWW
##pssssuuuuuuuggg
##SzzzzOO
##mmmmmmmmmmmmmmmmmmmmmmmnnnnnn
##Pvvvv
##LLAAF
##nnnnff
##lllllcccccx
##wwwwwppjjjj
##QQQobbbbbbbIIII
##AAAAAss
##RRRRRyyy
##FnCCCC
##ppppppuujjjj
##HHHHHHkkl
##WWWWWWWWWTTT
##orrrrrf
##lllllTTTTTTTTTTTTTTTTT
##FoVVVV
##QCCC
##rAAAAAAff
##Kaaaa
##KEEE
##llcccccccccc
##UUEEEEEEEE
##bbbbbbbbbbII
##fffSSSS
##obbbbbbbbbkkk
##lllBB
##ooVVAAPPP
##yyyyyyMM
##RRRRRMMMM
##ppjqqqqq
##GGGoV
##mmmmmmmmmmmmmmmmmmmmmmmmnnnnnn
##cccccccxxLLsss
##FKO
##mmmmmmmmmmmmmmmmmmmmmmmmmmmmmmmmmmmmmmmmmmmmmmn
##eeeeeeeeehhhhnnn
##pgjjj
##Sooo
##spss
##UUEEEEEEEEE
##HHHHFkk
##llllQooVVV
##ppppuuuujjj
##nFttttttt
##QQQooVVVyy
##eeeeeeeeeeeeeeeeehhhhhhhhh
##ooVVyyyyfff
##MMMMMMMMMtttt
##KKKKKKOOOO
##KKKKKKOF
##nmmnnn
##FQoVVVV
##FDDDiiii
##Ez
##qQF
##AArrr
##WWWWEEEE
##rrrryyyyyff
##obbbbkkkkQQQQ
##ehhhhnnn
##ccccccccccccccxx
##ooVVAA
##dddrrrrr
##vvvvvTT
##KKKKKaa
##dddddNNNN
##KKKKKKKz
##yyDDDUUUUU
##ppkkj
##orrrrryff
##XXXXXXXXXXXXI
##SQoor
##MOF
##eehhhhnnn
##SSEEEEEEEE
##rryyfff
##rrrrO
##QQobbkk
##ooVpk
##aaaaaGGGGGGGG
##UUUUUEEEEEEEEE
##WWWWWWWTTTTTTTTTT
##oorrAAAA
##Lsssuuuggg
##OOOOOOOOOOvv
##mmnnnnnCCCC
##SEEEEEEEEE
##oXXXXXXXXXX
##Vyyyyyyyyy
##Ekk
##KOOOOOOOOOOOOO
##bkkkQQQQ
##WEEEEEEEEEEEEEE
##cU
##KKvvvvvvv
##ssssuuuuugggg
##sssuuuuuugggg
##PPPPPPPP
##qqqqqqqqTTTTTTTTTTT
##yyyyyypppjjjjj
##pppjjjll
##obbbbbIIIIIII
##GGGGGGGcxxx
##eeeeeeeeeehhhhhnnnnn
##VVVyDDDDiiii
##EEEEEEEEEEEQQQQ
##Lssssuuuuuuuggg
##ppsssuuuuuuggg
##SSzzzzdd
##FaaG
##OzOOO
##aza
##Svv
##aGGGGGGGG
##llToo
##LLAAAAAfff
##yyyyMMMMMM
##bbbHHkk
##LLLssssggw
##MMMnFn
##oVVr
##ppjjqqqq
##zzzzzOOOvvv
##EEEEEEEc
##aaaaaaGGGG
##mmmmmmmtt
##mmmmmmmmmmmmmmmmmmmmmmmmmmmnnnnnn
##LAAAAAAAAffff
##mmmmnnCCCC
##SSSSSSST
##ooVVVyD
##Szzzzzzzzzzzz
##RB
##rAA
##qCCCCC
##VVII
##VVyyyyyyyyy
##KKEE
##rrHHHHHkk
##ggQ
##ooLLLss
##sssuuuuuuuugg
##kkkU
##obbbbkPPPP
##BBBxxLLsss
##RRRU
##MMMMMMMMMMMMnnnnn
##oobbbbbbbbbbbbb
##MMMMMMMMMMmmmmmmmmmn
##mmmmmmmmmmmmmmmmmmmmmmmmmmmmmmmnnnnn
##pjjllll
##MMMMMMMMMMMMMmmmmmmn
##lllllllccc
##QLLLsssgwwww
##pppppps
##Fsggg
##ppjkQQQ
##ppjPll
##SSSSzzzzzO
##QQobbbI
##hhnnCCCC
##Eor
##kFk
##VVVVVyyyy
##QQV
##yyyyfPPP
##wwwwyyyyff
##EEEEEEEEc
##UUUUUUUUUUU
##oVVVDDDDD
##HHHFkk
##TTTTTTzzzzzzz
##Lssssuuuuugg
##psssuuugggg
##GGGGGGGGGGxxxxx
##gggPQQQ
##SSzzzOOO
##yyyyffffii
##QQoVkkk
##SSSSSaaaaaaaaaaaaaaaaaa
##SzzzzzzOOO
##FmmmmmmmmmmmmmmmmmmmmmmmmmmmmmmmmmmmmmmmmmmmmmmmmmmmmmmmmmmmmmmmF
##lSSzz
##JJJJBJ
##WWWWFWWW
##QQQQLLLsssggg
##LLssssugwwww
##aaaz
##LLLsssuuwwww
##ooVVyyyyff
##yyyyyynnn
##yyyyyyDDDiiiii
##ppjjqqqqq
##TTTTTTTzzzzzz
##IFn
##IIssssuuuggg
##oVVVyppppjjj
##tnttttttttt
##oLLLsssgggg
##oVVVyyyDD
##uuuuwwwwppj
##eeeeeeeeeeeeeeeeeeeeeeeeeeh
##OOkk
##NNW
##HHHHHHHHHHHIII
##rrrrKKNN
##SSSoorrr
##rrrAAAfff
##BBBxFx
##TTTTToF
##GGGGGoo
##iiiiiWWW
##pppjjMMMMMMMMMMM
##WWWEEEEEEEEEEE
##sssssgF
##mnnCC
##QQQQQQooVVVV
##oobbbbbbbkPP
##SSSSaaGG
##uuwwwwwppjjj
##yDDDDDU
##ooHHHHIIII
##uuuujjjjQQQQ
##zzzOOOvv
##XXXXXXXID
##oOOOOOvvvvv
##qL
##yyyyfFf
##RRRRVVy
##yyyAAff
##obbbbkkkSSS
##AAAggP
##zzzOOOOOOvvv
##HHHFk
##AAAAAAg
##PPPPPQo
##GGGGGGGxxr
##orrAff
##mmnnmnnn
##Fnttttt
##RRRRRRRMR
##Lssssuuuugg
##rrrrrrrKKKKNNNNNN
##FPll
##QxF
##Kzzzzzz
##BUUUUUUUU
##eehhhhhnnnn
##QQG
##BBxxrr
##MMMMMMMMmmmmmmn
##MMMtttt
##WWWWWWcc
##pppjjjQQQQQQQQ
##ccccccxxxxxx
##oorrAfk
##FyMM
##pppppuuujjjj
##FSSSaaaaaaa
##bbbbkkPP
##IIsssssuggg
##MMnttttttttttt
##meme
##QQobbbIIIII
##uuuuwwwppjj
##OOOOOOOOOvvvvvvvv
##kqqqqqqqq
##eehhhhhnn
##KKaaaa
##VVVppp
##UUUUTT
##obbbbbbbbbbbkk
##QQQEEE
##PPPPQorr
##yyyyyyMMM
##LLssswF
##ooVy
##mmmnCCCCCC
##oorAAAAAAff
##fPN
##ppsssuugggg
##SSSSaaoo
##MMntttttttttt
##lSSSST
##uuuuuugFggg
##eeeeeehhhhhhhnnn
ii
mmmmn
##SQQoo
##Fbbbkk
##zzzza
##HHHHHHHHHHHf
##LLLssssuuwww
##LLssssuuuuuuuuugg
##Qoobbbbkkk
##ddddddddNNN
##uuuuugwwwwww
##GGGGGxxVVVV
##LLLsssssgwwww
##UUUUUUTTT
##uuuuuuggw
##psssgggg
##uuuuuuuuugwww
##FlllT
##pppppppujjjj
##XXXXXXIDDD
##zooF
##rAAAAAAAAff
##pwF
##pDDDDii
##EEoVVVV
##QQLVV
##rrrrKKKNNNNNNNN
##yyyMMMMMMM
##ooVVppppjjj
##JJJJJJJJJJJJJJJxxxx
##yyyyyyDD
##yyyyyyFff
##ooVyyyyyffff
##BBBBBBBxxLLsss
##pjjll
##BBBBBBBBBxxVVV
##FjQ
##pppppjjjQQQ
##QQQLLLssssgg
##FHIIII
##pDDiii
##mmmmmmmmmmmmmmmmmmmmnnnnnnn
##Fqqqqqqq
##tmt
##rrrrKKKKKNNNNNN
##KKKKKKKKOOO
##CCCCCGG
##yyyffiiiiiiii
##obbbbbbbbIF
##MMMMMntttttt
##obbbbkkPP
##OOOFOO
##SEEEEEEEE
##Soorrr
##URRRR
##mmhhhhhh
##bbIkk
##WWWWEEEEE
##AAAAAAwwww
##obbbbbIIIIyy
##AAAAAAAfPPPP
##obbkkkSSSS
##KKKKKKa
##yyyffPPP
##yDDDDDiiiiii
##llllTTTTTTTTTTTTTTTTTT
##SSSSzoor
##zzzzzzzzzzzzzOOOO
##ppppppjjwww
##MMMMMMMMMMMMnM
##rKKNN
##Hbkk
##kRRRRRR
##uAA
##bbkkkkQQ
##ffn
##XXIIIII
##JJJJxxxr
##llllllllTTTTTT
##rrrrKWWWWWW
##sssugF
##SSSG
##aaaO
##mmmmmmmmmmmme
##mmmmmmmmmmmmmmmmmmmmmmmmmmmmmmmmmmmnnnn
##yyyyyyDDDDi
##oobbIIIy
##ppppjjw
##MMnttttttttt
##IIIyypppjjj
##oLLsssssuuggg
##eeeeeeeeeeeeeeeeeeeeeeeehhhhhhhh
##SzzzzzOO
##eeeeeeehhhhnnnn
##mmmmmmmmmnFnnn
##SoF
##QN
##ET
##llTTTTTTTTTTTTTTTT
##pppP
##Qoobbkkk
##oVVpppp
##ooVyyyyffff
##MMMMMMMMMMnFnn
##orHHHHk
##orrAAAAA
##Fny
##bbbbbbbbIF
##KKNNNoVVV
##orrrryyyyff
##JJJJxV
##fKN
##rHHHHHHHkk
##lQQLLLsss
##lTTTTToo
##AAAAgP
##VVVVpp
##VVVVVVy
##mmmmmmmmmmmmmmmmmmmmmmmmmmmmmmmmmmmmmmnnnn
##mmmnmnnnn
##UUUUUTTT
##vvvvvTTT
##EEEEEEEEEEF
##oobbkkkkQ
##ppppjjjWWWWWW
##WWWWWWWWTTTTTTTTT
##Fjii
##FSSzzzzz
##eeeeeeeeehhhhhnnnnn
##fKNNNNN
##QQoobbbbbb
##BBBBxFx
##KKKKaaaa
##SSSSSSSSa
##WWWWJ
##UUUUEEEEE
##SSSFa
##uuuuuuuuuuuuuuuuuggg
##aaaT
##ooVVVppppp
##WWWWWaaaaaa
##CCCUU
##MMMMMMMMMmmmnn
##oobbkkkkQQQ
##VVVyyyDDDDii
##oobbbbbIIIIIII
##dddddddrrr
##IIssssuuuuggg
##QQQLLLssssuuuggg
##mmmmmmmmmmmmmmmmmmmmmmmmmmmmmmmmmmmmmmmmmmmnn
##TFT
##SSSzzzzdd
##XXXXXIDDD
##FAAAAff
##Ed
##EFEEEEEE
##CCU
##kkkll
##bbbHHHk
##ppppuuuuujjj
##ppjjjMMMMMMMMMMMM
##rrrrrry
##ttttttteet
##FSTTT
##XXXXXXXF
##IIIIIIMMMMMMMMMMMM
##rrrrrrrKKKKNNNNN
##CCCCCCCCCCCC
##xVVVyyyyy
##JJJJJJJJJU
##mmmmmnnmn
##uuuuuuuuuuww
##SSSzzzzddddd
##AAAAAAAAAww
##KKKKKKKKKKKKO
##eeeeehhhhhhhnnn
AAA
hh
##SRRR
##Arf
##ssssugg
##KKKKFKK
##uuuuuuuugwww
##GGGGGGxxxxx
##UUUdd
##ooVVVyyyyyyyyyy
##MMMMMMMMMmmm
##GGGccc
##VVVyyyff
##LLLLswww
##lllcccccxxV
##Fggg
##PFPP
##zrF
##HO
##UEEEEEEEEE
##yyyyMMMMM
##qqqMMMMMMMMMMM
##MMMMMMtt
##JJJJJJxxrrrr
##eeeeeeeeeeeeF
##Fnmnn
##QQQQQQR
##QQoVVyy
##pkkkQQQQQ
##JJJJJJJJJJJUUUUU
##llllTooo
##dddddddddddF
##SSSSzzzzzzO
##FGGGx
##mmmmmmmmmmnnnnnnnnn
##nCCCCCCCCC
##FDDDii
##oOOOOOvvv
##EoVVVV
##pDDDiiiiii
##lcccccx
##ssssuuuuuuugg
##VVVDDD
##LLLVV
##llllQooV
##lllSSS
##OOOOOOOOOOOOvvvvv
##ccccccccccccccccc
##lllllccccccccccc
##LLsssuuuujjj
##orrAAAf
##mmmmmmmmmmmmmmmmmmmmmmmmmmmmnnnnn
##mmmnnnCCCCCC
##FSSzzz
##pssssgggg
##QQQoVVVVyyyy
##qqqqqqqqqqqTTTTTTTT
##uuuuuuuuuugwwww
##SSSzzzzOO
##Saaaaaaaaaaaaaaaaaaa
##yyyyyyyyffiiiiiii
##met
##IHH
##teet
##lEEEEEEE
##SSEEEEEE
##RRyyy
##MMMMMMMMttttttttttttttttt
##LLssssuuuwwww
##bbbbbbbkPP
##FlQ
##MMMMMMMMMMMMMMmmmn
##QQQLLLsssswwww
nntt
##mnnnnnnnnnnnnnn
##FTG
##SSzzzzzO
##yAy
##FzzzzOOOO
##eeeeeehhhhhhhnnnn
##oLLLL
##ryff
##KSSaaa
##pFp
##aaTT
##QQoooVV
##UUd
##RRRRMMMMMM
##HHHHHff
##ppjjjS
##XXXXXXIIIy
##HHHHHHHHfk
##obbFb
##xVVyy
##uuuggP
##zzzzzzzzzzOOOOOOOO
nmmmn
ynnn
##nhh
##Fyyyfff
##zdddddddd
##nnhh
##KKOOOOOOOOOOOO
##LLVVyy
##GGGGcxx
##qqqqCC
##PPPQorr
##MMMMMMMtt
##MMMMMMMMMMmm
##VVVyppppjj
##VVVyppppjjjjj
##vvvvvvTT
##ehhhhhnnnn
##pssssuuuuugg
##eeeeeeeeeeeeeeeeeehhhhhhhhh
##oLLsssssggg
##fKWWWWWW
##lllccccxxV
##uuuuuuuuuuuj
##KSSaaaa
##enFn
##uwgg
##rryr
##CCFCC
##ggwwwww
##rrrrffff
##yyypjjj
##PPPPQQQQ
##QQQoLLLsss
##rrrrryyyyff
##DDDDDjj
##QobbbbIF
##mmmmnnnCCCCC
##eeeeeeeeeFt
##QQQLLLsssgggg
##yyyyyyyyyynn
##uuwwwwwppj
##RRRRRRRRRRRC
##EWE
##Jq
##UEEEEEEEE
##wyyyy
##eehhhhnn
##ccJ
##ccccUUU
##pppAAAAAAff
##MMMFnnn
##JJJJJJJJxxxVV
##qqqMMMMMMMMMMMMMMM
##MMMMMMMMMmmmmmmmmn
##obbbbbkkkQQQQ
##obbIIIy
##ccccccxxLLssss
##LLLLsssgwwww
##FnCCCCCC
##obbbbbbIIIIIII
##EEEEEEEEEEEQQ
##pjjlll
##QQLLLssssugggg
##dddddddddx
##FyyM
##oLLLssssgggg
##eeeeeeehhhhhhhnnnn
##aC
##pRRR
##pggP
##ppn
##MMMMMMMMmmnn
##IIIyyyy
##ttteeeee
##RRRVVVyyyy
##EEEEEFEEEEEE
##SSSSSSTTTT
##MMMMMMMMMmmmmmmmmmn
##RRRRRRMMM
##EEEEEEEEEoVVV
##rrrrrrKWWWWWWW
##mnnnC
##KKKKKKKKKKEEE
##GGGGGGGGGGGGxxxx
##uuuuuuuuuuugw
##Bl
##tttteeee
##nFyy
##LLsssgww
##uuuuuuuw
##LLsssssuuuuuuuggg
##LLsssssuuuugggg
##MMMMMMMmnn
##MMMMMMMMMMtttttttt
##cccccxxxxxx
##oVkkkkQQQ
##mnnnnCCCCCCC
##ddddddO
##QoVVVAPPPP
##QQQoVVVpkk
##lSSSSTT
##pfk
##zzFz
##WWWWEEEEEEE
##llllooVV
##yyyfPPP
##yyypPPP
##PPPPQLLLssss
##SSSSSoor
##pppjjjww
##aaaaaoo
##MMMMMMMmmmmn
##MMMMMMMFnn
##eeeeeeeeeeFt
##LLLLsssgwww
##XXXXXXXDDD
##fPPorr
##ppppjjQQ
##GGGGGGGGGxxVVV
##QQLLLssssuugggg
##HHHHHHkkll
##QQQoVVkkk
##SzzzOOOO
##oLLssssswwww
##oobbbbbbbbIIIIII
##KKKNFNNNN
##eeeeeeeeeeeeeeeeeeehhh
##eeeeeeeeeeehhhhhhnnn
##uuuuuuugFg
##eeFtt
##RRMMMMMMMMMMM
##hhhhnnnnnn
##RRRRVVyy
##yyyMMMMMM
##sssgwww
##yyyyyyDDDii
##oobbbbIkkk
##LLLsssssuuuuugg
##EEEEEEEEEVVV
##GGGGGGGxxxVV
##yyyyyffPPP
##yyyyyyyyffiii
##eeehhhhnn
##cQF
##EEor
##qqM
##MMMMMMMMmM
##pppf
##wwwwwgPPP
##QQQobbIII
##oobbbbkPP
##mmnmmmmmmmn
##rrrrrKF
##WWWWWFW
##sssssuuuuuuugg
##wwwwwwppj
##rrrrrrKKKKKNNNN
##BBBBBBBxxF
##QQQQQQLLLsss
##QQoVVVkk
##QQLLLssssgwwww
##QQLLLssssuuuuuggg
##FPl
##xFBxxx
##FQooVV
##jUU
##MMtttttttttttttttt
##llccccxx
##LLAAAAAAAf
##bbbbbbbbbbbIIII
##yyyyFfff
##fffKK
##ppppuuujjj
##LLLssssgggQQ
##LLssssuugF
##zzzzzzzzddd
##yyyyyyDDDiiiiii
##ppjjjjiiii
##uuuuuuuwwwwwppjj
##GGGGGGGcxxxx
##LLLsgggP
##mmmmmnmmmmmn
##obkkkSSS
##SSSSaGG
##HHHkklll
##SSSSaaaaG
##MMMMMMntttttt
##SSSzor
##QLLLssgg
##uuuuuwwwwppj
##bIb
##qMMMMMMMMMMMMMMMMM
##mmmmmmmmnnnnnnnnnn
##yyyfFf
##jjjQQQQ
##GGGGGGcxxx
##JJJXXXXXXXXX
##qqqMMMMMMMMMMMMM
##JJJJJB
##KKKKKaaa
##LLLLsssuuuuuggg
##obbbbbbIkk
##mmmmnCCCC
##orrrrAff
##oVVVyppppjjjj
##SzzzOOO
##MMMMMMMnttttttttttt
##RRRRRRRRRRRCCCCCC
##yyyyyyyyfffiii
##lllcccccxF
##nmnnnnn
##SQoorr
##FLLss
##oXXX
##MMh
##llQQoVVVV
##rrAAAAAAAff
##RRVVVyyy
##ddoVV
##rrrKKKKNNN
##OOOOOOOOOOOOvvvv
##ttteeeeee
##mnmm
##mnCCC
##JJJxxVVVV
##LLsssuuuuuuuuugg
##zzzzzOOOOvvv
##UUUUUEEEEEEEEEE
##oVVVVF
##BBBBBBxxrrr
##eeeFtt
##QQQQQQQQQQo
##FSSzz
##QorrrAAff
##pppppjFjjj
##QLLLLssssggg
##QSF
##teeeeee
##Okvvvvv
##ssgFs
##ppkkSSSS
##llcccccccxxx
##qqMMMMMMMMM
##UUxF
##nnnnf
##LLLssssuuuwww
##AAAfFf
##eeeeeeeeeeeeeeeeehF
##rrrrrH
##EEEEEEEFEEEE
##TTTTTTooVVV
##orrV
##QQQQQQooVV
##KKKKKKKOF
##QQQQQQQQQQQQQ
##KKKKKKKKKKKOO
##FDi
##hhhnnnCCCCCCC
nnnnnnnnnn
##ppgPPP
##JJC
##JJxxxV
##HHHHkkkQQQQ
##HHHHHHHHHHHII
##nnntt
##QQQobbkkk
##KKKKKzzz
##GGGoVVVVV
##RRRRRRRRy
##QQQQQQooVVV
##oobbbbbIIIssss
##AAAAAffP
##QLLLssswww
##eeeeeeeeeeeeeeeeeeeehF
##SSSzzzzzOOOO
##iiiiiSa
##OOFOOO
##pfjj
##ntt
##Nv
##Jccc
##Dppjjj
##ApPP
##QQbbb
##HHkkSSSS
##TTTTzzz
##lllQoVVVV
##KKKOOOOOOOOOO
##Qooor
##mmmmmmmmmmmmmmmmmmmmmmmmmmmmmmmmmmmmmmmnnnn
##mmmmmmnnnnnnnnnnn
##GGGGGGGGcxx
##uggggQQQQ
##uuuuuuggwwww
##AAAAAAAAfffff
##JJJJJJJJJJJUUUU
##EFEEEEE
##teeeee
##lQQQQQoo
##VVppkk
##llQooVVVV
##WWSS
##ffW
##WWWWEEEEEE
##Qobkkk
##pppjjjjWWW
##yyyyyyDDDDiiiiii
##QQQobbbbbbbIII
##AAAAAPPPPP
##EEEEEEEQQ
##GGGGGGGxxLLssss
##VVVyI
##VVVyDDDsss
##LLLLsssgF
##QoVVyyyy
##QQQQQQoVV
##eeeeeeeeeeeeeehhhhhnnnn
##CCCCCCCCTTTTT
##Qorrryyyff
##IIsssssggg
##IIsssssuuggg
##MMMMMMMMMMMMMMMMnn
##ppjPllll
##eeeeeeeeeeeeeeeeeeeeeeeeeeehhhh
##zoooVV
##llcccccccx
##BBBBXXXXX
##BBBBxxxrr
##pppjjjQQoVVV
##oVkkkkQ
##zzzzzzzzzOOOOOOOOO
##QQFQ
##mnnnnnnCCCCC
##lllllTTooo
##SzzzzOOOOO
##QLLLssF
##SSzzzzzzzOO
##pFss
##sA
##lSSzzz
##IIn
##zzzzOOvvv
##PPPQoVVV
##AAAPPPPPP
##bbbbbkF
##HHHHHFkk
##oobbbbkkkQQQQ
##pppjjjFj
##SSSSSSoooV
##BBBBBxFx
##bbbbbbkPPPP
##CCCaaa
##EEEEEEEEErrr
##ppppjjjF
##KKKKKKKKKEEEEEEEEEEE
##psssuugggg
##QQLLLsswwww
##pppFjjjjj
##XXXXXXXXXXXXIIII
##Roo
##QJJJJJ
##pfPPPPP
##Diiiii
##mmmmttttttt
##uuwgg
##UUEEEEEEE
##QQQQT
##QoHHHHHHH
##pppAAAAAAAff
##rrrKKNN
##yyyyyMMMMM
##ppjjq
##HHHkkkQQQQ
##ppjqqqq
##yyyyyyyyMM
##oobbbkkkkQQ
##uuuuuuggwww
##mmmmmmmmmmmmmmmmmmmmmmnnnnnnn
##Fhhh
##FkPP
##cTF
##eehhhhhhhhhh
##TTo
##AAAAggg
##zzzzaa
##ppjjMMMMMMMMMMMMM
##oobbbbkPPPP
##qqqU
##yyyyyyyMMM
##cccccccxxVVVV
##BBBBBBBBBxxxVV
##uggggQQ
##ddddddddddrr
##QQQLLLssswwwww
##JJJxV
##oLLssswwww
##eeeeeeehhhhhhhnnn
##EFEEEE
##rAAAAAAAAAff
##pFs
##Dpjjj
##jQQQQ
##jwww
##qo
##SSGGGGGx
##RRE
##OOOOkv
##pppAAAAAAfff
##tttttttteet
##TTTTTTTTF
##yyyyypjj
##lllllcccccccxxx
##WWWWWWaa
##yyyyyyDDDiii
##oobbbbIIIIIII
##WWWWWTTTTTTT
##MMMMMMFnnn
##oobbbkkkQ
##Fntttttt
##QQQQQQooo
##orrrfff
##mmmnnnmn
##MMMMntttttttttttttt
##pppppjjww
##llllTTooo
##FVVyyyy
##kvvvvvv
##Dyyy
##bbbbbbbbbbbkkk
##AAAAwwwy
##SSSSzzzzzzzzzzzz
##WWWWaaaaaa
##aaaaaaaaGG
##uuuuuuuuuuuuujjj
##GGGGGGUUUU
##yyyyyyDDDDii
##UUUdddd
##rrrrrKWWWWWWWW
##LLLssgFs
##nnnnnnnnCCCC
##mnnmmmnn
##MMMMMMMMMMmmmnn
##VVVyypp
##fPPPoVV
##Fyyyffff
##SSSzzzzzddd
##uujjjQQQQ
##SQrrr
##Ftttttttttttt
##FKKNNNNN
##NWW
##SSQQQ
##llCC
##TTTTzzzzzzz
##zzzzOOOOvv
##mmmmmmmmmmmmmt
##ooVVkkkkQQQQ
##nnnnnnnnCCCCC
##LLsssssuuwwwww
##sssssuuuuugggg
##rrrrrrKKWWWWWWW
##VVVyyyDDDDi
##yyyyDDDDU
##SSSSaG
##KKKKKKKKKKEE
##QobbbbbbkPPP
##BlF
##bbkPPP
##WWWWaaaaaaa
##kkkQQo
##yyyyyMMM
##OOOkvvvv
##UUUd
##UUUddd
##bbbbbbIIIssss
##MMMMMMMMMMttttttttt
##VVVyDDDDU
##oorAAAfk
##LAAAAAAAAAAAAf
##psssuuuugggg
##FllTTTTTT
##mmmmmmmmmmmmmmmmmmmmmmmmmmmmmmmmmmmmmmmmmmmmmmmn
##FlllTTT
##hhhnnCCCCCCCC
##yppjjjj
##FooVVV
##tq
##qLLLsss
##nnmnnn
##ook
##llllG
##zzzFzzz
##oVVVpppppjjjj
##ooVVyyyfff
##LLLsssssuuuuuuggg
##LLLsssssugF
##oFLsss
##EEEEEEEEEEFE
##LLLLsssuuggg
##mmmmmnCCCCC
##LLAAAAAAAAAAAfff
##eeeeeeeeeeeeeeeeeehh
##Afkk
nttttttt
##rHHHHHIII
##llTTTTToo
##JJJJxxxVV
##pppAAAAAAAfff
##SSSTTTTTTTTTT
##obbbbbbbbbk
##lllJJ
##zzzOOOOOOOOOOOO
##OOOOOOOOOOOOOOOOOOOO
##ooVVDD
##HHHHHIIIy
##RRRVVyyy
##RRRVVyyyy
##RRRRRMMMMM
##yyyyyyynnn
##BBBBBUxx
##VVVyyF
##LLLLssssuuuuuggg
##mmmnFnnnnn
##oVVVypppjjjjj
##ppsssuuugggg
##MMMMMMnttttttttttttt
##TTTTTTTTTTTTTToo
##MMMMMMMntttttttttttt
##oVVVVypppjjj
##BBBBBBBBBBBBBxxxxx
##Rc
##EQQ
##ENN
##doVV
##JxVVV
##UEEEEEEE
##SSTTTTTTTTTT
##ccccxxLLssss
##SSSSo
##mmmmmmmmmmmmmmmmmmmmmmmmmmmmmmmmmmmmmmmnnn
##ooVII
##uuuuuuuwF
##oFLssss
##ttttteeee
##qqqqqT
##yffiii
nnmn
##QQQLLLsssgwww
##ppssggg
##yyyyyyyfffiiiiiii
##ooLLssssggg
##llllccccccxF
##QLV
##ugwg
##OR
##iF
##ccUUUUU
##rrrrAA
##QQQLLsss
##zzzzzzzzOOOOOOOOOO
##JJJxxF
##nnnnnnPPPPP
##oobbbbbbbbkkk
##LLLsssssuuwwww
##BBBBBBxVVV
##zzzzzzzddddd
##aaaaaaaaaGG
##QoVVVVVVy
##OFz
##ppppjjF
##ppppjjWWWWWW
##FnnCCCCC
##MMMMMMMMMMMMMMnnnn
##QLLLssssuuuuuggg
##oVVVVVIII
##SSSzzzdd
##MMMMMMMnttttttt
##eeeeeeeeeeehhhhhnnnn
##mmmmmmmmmmmmmmmmmmmmnFnn
##fKKNNNNN
##KSSaaaaa
##bbHHk
##DDjj
##ooAAAAff
##JJJJXXXXX
##QQQQLLLL
##QoHHHHHHHkk
##sssgFs
##lllG
##zzzFz
##GGGGGcx
##oVVVVVVV
##oVVVVppjjj
##AAAAAAgPPP
##RRRRRRRV
##ppppjjjW
##pppppjjjU
##oLLLssssgg
##SSSzzzzzzOOOO
##uwwwppjj
##ntttttttt
##Fmn
##FAf
##KKOK
##CCFCCC
##HHHHKSSS
##SSSSoooV
##rrrryyyyffff
##sssuugg
##wwwFw
##cccccccccccccx
##RRRRRRyR
##UUUUUUTTTT
##xVVyyDDDD
##pjFj
##yyyyyyyyyM
##OOOOOOOOOOOvvvvvvv
##CCCCCCCCCTTTT
##ppjkQQ
##QQLLLsssssggg
##ffSN
##ffSNN
##rfF
##zzOOOOOvvvvv
##zzOOOOOOOOOOOO
##GGcx
##llllcccccccccxxx
##EEEEEEEEFEEE
##yyyFy
##yyyfFff
##ooVVpppp
##QQQobbbbbI
##ooVkkkSSS
##oobbIkk
##eeeeeeeeeeeenF
##qqqqqqqTTTTTTTTTTT
##LLLswF
##IIssssuuggg
##Ffiii
##KKKKKKKKKKKKN
##oHHHHHHHHHII
##Ryyyy
##QW
##KKzzzzzz
##BBBBUxx
##rrrKKWWWWWW
##SSSSSzzzzzzzzzzz
##LLLsssuuuwwww
##BBBBBxFBB
##llllllcccccccccc
##MMMMMMMMMMMmmmnn
##tttttteeee
##ppppjjU
##KNNNoVVV
##bbbbbbbbbI
##SSSaaGGGGGG
##MMMMMMMMntttttttt
##SSSSSzoor
##eeeeeeeeehhhhhhhhhh
##mmmmmmmmmmnFnnn
##llllccxF
##FAAfff
##bkkkkQQQQ
##LIF
##JJVV
##HHHHIIIy
##GGGGxxVVV
##MMMMMMMMmmm
##MMMMMMMMnnnnnnn
##MMMMMMMMnFnnn
##yyyyyMMMM
##MMMMMMMMMMMmmmmmmmmmmn
##LLLLssssuugggg
##QQQQQQLLLLss
##uuugggw
##oobIIIssss
##rrrrrrrKKKKNNNNNNN
##cccccccccxxVVV
##SSSzzzzO
##BBBBBBBBBBBBBBBBx
##eeeeeeeeeeeeeeeeeeeeeeeeeeeehhhhhhh
##SQorrrr
##FSSSSaaaa
##ccT
##bbbbbbbbbbk
##llllQooVVVV
##LLLsssugg
##ooVVkkkQ
##KKKKKKKKKNNNNN
##CCCCCCU
##MMMMMMMMMMMMmnn
##MMMMMMMMMMMMmmnn
##ppppjjjjWWWWWW
##QoVVkkkk
##xVVpkk
##tttttttttteeeeeeeeeeeeeeeeeeeeeeeeeeeeeeee
##Lssssuuuuuuugg
##yyyDDDUUUU
##FKOO
##SSSSaoo
##qqqqqqqqqqqTTTTTTT
##oVVVyyyppjjjj
##oVVVyyyppjjj
##FHHHk
##Qbbb
##uugwg
##rrAAAf
##LLpps
##aaaaoo
##ccccxVVVV
##yyyMMMMM
##VVVVyDDDD
##LLssssuuuwwwww
##yyyyyyAff
##MMMMMMMMMMMMmmmmmmmmn
##qqqUU
##LLLsssssgwww
##WWWS
##LLssggP
##nnnnnnnPPP
##obbFkk
##oobbIk
##qqqqqqUUU
##LAAAAAAAAAffff
##eeeeeeeeeeeeeen
##MMMMMntttttttttttttt
##mmnnnnnnnnnnnnn
##XxF
##lQobbbb
##SSFa
##rrKKNN
##RRMMR
##SSSR
##obbbbbbbbbI
##oobkkkSSS
##Fyynnnn
##FPQQ
##MMMMMMMMMMMMMMMnnn
##SSSSaaaGGGGGGG
##EEEEEEEEEEEEEEEEEEEEEEEEEEE
##FTGG
##yyDDDDDiiiiiii
##dddddddddddr
##uuugFs
##uuuuuwwwwwwww
##Fccc
##CU
##BQQ
##rrAAAAf
##bbbbIIIIy
##yyyyfFff
##kkkQQQoVVVV
##rrrFrr
##KKKEEEEEEEEEEE
##orryyyyff
##ppppjjFjj
##FlU
##pppppuj
##Ffii
##ooVVVVVyyyy
##IIIyypppjjjjj
##dddddddddddddddddddddddddd
##fKWWWWW
##MMMMMMMMMMMnMM
##pppppppjjjjjjjj
##obbbbIpkk
mmmmmn
##meeeeeeeee
##GooVVVyy
##zaaaaaaaa
##kqqq
##OPPP
##Qobkkkk
##EEEEEEEErrrr
##KKKaaaaa
##RRRyyy
##KKNNNNNNNNN
##WWWWWTTTTTTTT
##bbbbbbH
##CCCCCCCoF
##RRRRRRRM
##QQQoVVVVVyyy
##bbbbbkkP
##FlllTTTT
##IIIIyypppjjjj
##yyyyyffffii
##rHHHHHHHHf
##yI
##sssuugF
##SSSFaa
##uuuuuuuuuuujjjj
##oVVyyyyfff
##OOOOOOOOv
##ppjjjQQoVVV
##EEEEEEEQQQQ
##aaaaaaGGGGGGGG
##QFP
##rrrrrrKKKNNN
##AAAffPP
##zoHHHHHHkk
##yyyyDDDUUU
##LLAAAAAAAAAAf
##SSSaGGGGGG
##xFJxxx
##UFUUUU
ttttttttttttt
##Fwwwww
##oOOOOOOvvvvv
##Kf
##Arff
##MMFnn
##LLAAAAAAf
##LLAAAF
##zzzzdddddddd
##zzzzOOOOOOOOOOOO
##AAAAAAAAAAAAAAAAAAff
##TTTooVVVV
##mmmmmmmmmmmmnnnnnnnnn
##JJJJJJJJJJJJJJJx
##HHHr
##TTTTTTzzz
##MMMMMtt
##VVVyDDDDiii
##MMMMMMMMMMMmmmmmmmmmn
##oorAAAAfff
##JJJJJJJxxxr
##QLLLsssgF
##MMMnttttttttttttt
##pppppppujjj
##mmmmmmmmmmmt
##uuwwwwwwy
##OzOOOOOOOOOO
##lllccxF
##meh
##pgw
##yyyAAfff
##bbbHHk
##rrrAAAAf
##TTTGGG
##yyyyyR
##HHHHHHff
##ooVVPPPPP
##MMMMMMMMMMMMmmmmmmmmmn
##ppjjjqqqq
##mmmmmmmee
##uugggww
##lQQooVVV
##oobbbbbbbkPPPP
##uuuuuuuuugggll
##eeeeeeeeeeenF
##eeeeehhhhhhhnnnn
##JxxVVV
##Bccc
##ppFp
##HHn
##kkll
##GGGGccc
##LLLsssuuuuuuugggg
##OOOOOOOOVV
##bbbbbIIIIIIII
##lllllccccx
##HHHHHkkkQQQQ
##LLLssgggQ
##aaaaaaGGGGG
##mnnmmmmmn
##QQQQQLLLssssggg
##eeeeeeeeeeeeeeF
##yDDDDiiiiiiii
##QoVVVpk
##mmmmnnmmn
##pssssuuuuugggg
##QQLLLsssuuuuuuggg
##Fbbkkkk
##eeeeeeeeeeeeeeeeeeeehhh
##SSzzzzOOOOO
##XXXXXXXXXXk
##FSSSSaaa
##Qxxx
##Ajj
##mmmmnnnnnnnnnnnn
##ssssuuuuuuuuggg
##QoorF
##IIIIIMMMMMMMMMM
##mmmmmmttt
##EEEEEEEEEFEE
##BBBBBBBUx
##yyyffllll
##SSSSaaGGG
##xxrrrrfff
##FEEEEEEEEEEEEE
##GoVVVVV
##URRRRR
##yyAffff
##yyyypppjjjjjj
##SSSSGGGGGGxx
##QQQQobbbbbbb
##yyyFnn
##QQQobbbbbbIIIII
##QQobbIIII
##mmmmmttttt
##bbbbbbkkkSSS
##sssssugF
##xxVVkk
##orrAAAAf
##pppppuuuuuujjj
##mmmmmmmnmmn
##FllTTTTT
##uuuuuuuuuuwwwwwww
##orrrrryfff
##oLLAAAAA
##lllllTTTTTTTTTTTTTTTTTT
##eeeeeeeeeeeeeeeeeeeeeeeeeeeehhhhhh
##Qobbbbbbbkkk
##eeehhhhhnnnnn
##Fkkkk
##zFzz
##bkkkQQ
##JCCCC
##Aggg
##Xkkk
##SSCCC
##ccccXXXXXXXX
##yyynnnn
##LLssssgggP
##wwwM
##LLLsssuuujjjj
##WWWWWaaa
##WWWWWFWW
##ehhhhhnn
##mmnnnnnCCC
##HHkkll
##SSSzzzzOOO
##SSSzzzzzd
##BBBxV
##SzzzzzOOOOO
##SzzzzzzOO
##XXXXXXXIDDD
##Qbbbbkkk
##QQTTT
##SSSEEEEEEE
##LLLssssugwww
##QQQdddd
##HHHHHHIIIIII
##lllllQooVV
##lllllcccccccx
##JJJJJJJJJJJJJJJJJxxx
##LLsssuuujjj
##oooII
##nnnnnnnnCCC
##zzzzzzF
##obbbbbkkP
##cccccxxxVVV
##oobbbIIIy
##ccccccUUUUU
##qqqqqEEEEEE
##oobbbbbIkk
##HHHHHHkll
##QQoVVVyyyyyy
##uugggggg
##Qorrryyff
##uuuuuuuuuugwwwww
##ppppjw
##obbbbbIIpkk
##uwwwwwwy
##eeeeeeeeeeeeeeeeeeeeeeeeeeeeeh
##ntttttttttt
##Vrr
##pLss
##Lqqqqqqq
##eeeeFtt
##TTTTooVVVV
##SSSSC
##QoFV
##AAAAAAAAfPPP
##SSSSSooV
##cccccccccccccccxxxx
##BBBxxxr
##rrrrrKKKKKNNNNNN
##MMMMMMnFnnn
##LLLsssssuuwwwww
##MMMMMMMMMMttttttt
##orryyyfff
##QQQQQQLLLssssss
##mnnnnmn
##QQLLLssssgwww
##BBBBBBBBBBxxxV
##psssuuuuuuuggg
##mmmmmmmmmmh
##SSzzzzzzzOOO
##eeehhhhhhhhhh
##nM
##doF
##JBBBBBB
##coVVVV
##lGG
##mmmmeeee
##ssuuuuuggg
##yyyyAffff
##rrrrKKKKKNNNNN
##PPPPlQ
##mmmmmmmmmmmmnFnnn
##qqqqqqqqUU
##UUUQ
##HHHHHHHFk
##MMMMMMMttttttttttttttttttt
##bbbbbbbIk
##LLLLssssugg
##LLLLssssuugg
##VVVyyypppjj
##mmmmnmmmmmn
##mmmmmmnmmmn
##ppppppuuuujjj
##tntttttttttt
##VVyypppjjj
##LLsgF
##pjPllll
##eeeeeeeeehhhhhhnn
##SEEEEEE
##Lqqqqqq
##BxFBB
##mmmmhhhh
##nntttt
##llSSSSSS
##rrrrfF
##mmmeeeee
##obbbbIIIIIII
##LLLssssuuuuuuugggg
##QQQz
##wwwwwyfff
##WWWWWaa
##DDDDDUUUU
##PPPPPF
##cccccUUU
##QLLLssssgwwww
##HHHHHHHklll
##mnnnnnnCCC
##FQx
##MMMMntttttt
##pkjF
##fiiiiii
##Dfff
##jqq
##qnF
##AAgF
##CCUU
##eeeeeeeett
##UUUUEEEEEEEEEEE
##VVVVyyyyyyyy
##SSSCC
##rrryyffff
##LLssssggwww
##yyyyyppppjjjj
##JJJJJJJJJJJJJxF
##LLsssugF
##EEEEErrrrrrr
##BBBBBXXXXXXX
##TTTTTTTzzzz
##TTTTTTTzzzzzzz
##OOOOOOOr
##OFOOO
##FVyyyyyyyy
##QLLLsssuuuuugg
##SSSSSSSzzzzzzzz
##QorrAAA
##ppppjjjjjjWWWW
##SSSzzzzzdd
##orrrrryyff
##lSSSSST
##yrr
##bkkkSSS
##Jxxxxxx
##SSNN
##LLLssssuuuuuuuuuugg
##DDDjj
##pppjjjjl
##WWWWWWTTTTTTTTTT
##MMMMMMMMMMtttttttttt
##LLsswwwwww
##LLssgFs
##rrrrrrKKWWWWWW
##orHHHHHHHHk
##FSaaaaaaaaaa
##KKNNNNNoVV
##obV
##yyyyyyffPP
##SSzzzzzdd
##oHHHHHHkkk
##mmmmmmnFnnnn
##SzzzzzzOOOO
##CCCCCCCCCCT
##FUUUUUU
##FTTTToo
##rKKK
##Appp
##loF
##QQdddddddd
##ppAAAAAAAff
##llcccccccccxx
##MMMMnFnn
##ttttttttett
##LLLssssuuuuuuuuuuuuuuuu
##lllllQF
##rrrrrKKKKNNNNNNNN
##ooVPPPP
##WWWWWaaaaaaa
##MMMMMMMMMMmmmmmmmmmmn
##pjwww
##Fyppjj
##pDDUUUUU
##hnnnnnn
##XD
##lccccx
##EEFEEEEEEEEE
##llcccx
##rrAAAAAAAAff
##UUQQQ
##QQQQoLLLsss
##UUUEEEEEEEEEEE
##GGGGGccc
##TTTTTToF
##LLLssuuuujjjj
##mmnnCC
##pppjjjjjii
##eeenn
##pjjSS
##kkkQQLLLsss
##zzzzzzzzzzd
##QorHHHHHk
##KKKKKKKKKKEEEEEEEEEEE
##MMMnttttttt
##SSaaaaaaaaaaaaaaaaaaa
##ooVVyyD
##mmmmmmmmmmmnFnnn
MM
mmmnn
##yMMM
##Rrrr
##QEEEEEEEEEEEEEE
##zFzzz
##lccccccx
##ssgggg
##HHKK
##AAAAggP
##MMMMMMMMmmmmmmmn
##rrrrrfF
##ooVppkk
##MMMMMmmn
##MMMMMMMMMnnnnnnn
##LLssgggP
##VVVyF
##pppppjjjjWWWW
##mnnnnnC
##KKKKKKKKKKKEEEEEEEEEE
##pppppjFj
##PPPPllTT
##lllTTTTTTTTTTTTTTTTT
##eeeeeeeeeeeeeeeeeeeeeeeeeeeeeeehhhhhh
##mmmmmmmmmmmmmmmmmmmmmnnnnnnn
##Ifff
##oXXXXII
##MMmmn
##ppFk
##ooHHHkk
##yyyyMMM
##GGGGxVVVV
##wwwwgPPP
##uuuwgg
##RRRMMMMMMM
##ppjjjjqq
##UUUUUEEEEEE
##BBBBBXXXXXXXX
##JJJJJxxxrr
##hhhhhnnnnnn
##yyyyyyyyyyyyfff
##nFnmn
##yDDDDDDiii
##ooFkk
##oHHHHHHHHf
##SSSaaaaaaaaaaaaaaaaaa
##BJxx
##QQLLLssF
##XXXXXXIDD
##ooVVyDD
##kjj
##jff
##LI
##MMtttttt
##EEo
##SSEEEEEEEEE
##rryyyyyfff
##rrKKKKNNN
##JJBBBB
##RRRRVVyyy
##yyyppppjjjjj
##obbbbbbbbbbIIIII
##yyyyyfFff
##yyyyyyppj
##oobbbbbbbbbbII
##TTTTTzzzzzzzz
##WWWWWaaaaa
##aaaaaaGGGGGG
##VVVyyppppjjjjj
##pkjjj
##mmmmnmnnn
##eeeeeeeeeeeeeehhhhnnn
##rFff
##Lssssugggg
##fPPlll
##QLLLsssuuggg
##QLLLssssgwww
##aaaaaaaaaaaaaaaaaaaaaaaa
##uuugFwww
##AAAAwwyy
##QobbbbbbbbIII
##XXXXXID
##SRRRR
##yyAAfff
##BBxxr
##QoLLL
##bbbHHH
##TTToooVV
##AAAPPPPQ
##UUUEEEEE
##LLLssuuuuuggg
##bbbbbbIIIIIIII
##QQQQQRR
##BBBBBBBUUx
##QoVVF
##ddddddNNNN
##oorrAAAAf
##MMMMMMMMMMMMMmmmmmmmn
##oobbbbbbIIIIIII
##obbbbbbbbkPP
##Lsssssuuuuggg
##QQorrAAAff
##SSzzzzzzO
##QLLLsssssggg
##cTT
##jwwww
##BBxxVVV
##TTTTo
##KKKKaaaaa
##TTTo
##ooVVpppppp
##yyyyyyyyyyyyyyyyy
##eeeeeeeeeeeehhhhhn
##EEEEEEEEEEEEWW
##KKKKKKKa
##qqqqqqqqqqTTTTTTTTTTT
##HHHHHHHHHfk
##ppjPl
##uuuuwwwwwpj
##oLLsssgg
##OzOOOOOOOOO
##KKKNFNNN
##QQccc
##JJJJxxxrr
##rrrrKKKKNNNNNNNN
##sssugg
##BBBBBBBBBBBBBBBBBBxxx
##oVVFV
##UUUddddd
##ooVVVppkk
##oobbbbbbbbbbkk
##ppjjjjF
##mmmnmmmmmmn
##oooIII
##GGGGGcxxx
##LLLssuuuuuuggg
##KKKKKaaaa
##VVVyyDDDDiiiii
##mmnnCCCCCCC
##tttttttttett
##pppjjjjjWWWW
##LLLsww
##QooVVyyyyy
##FlTTTTTTTT
##SSzzzOOOO
##MMntttttttttttt
##azzzzz
##Errrrrrrr
##rfPPP
##MMFw
##bbbIIIIIIII
##HHHHHHKSSS
##yyyyyyppjjjjj
##ffffWW
##CCCCCTT
##pppjjjqq
##ppjjjw
##EEEEEEELLLLsss
##mmmmmmmmmmmmmmmmmmmmmmmmmmmmmmnnnnnn
##XXXXXDDD
##pjjjS
##SSzzzzzOOOOO
##QLLLssgwww
##lSSSTT
##eehhhhhhnnn
##BBBBBBBBBBBBBBxxxxx
##mhhhhhhhh
##GoooVV
##rKKKKK
##Krrr
##Lqq
##QQoooV
##TTTTGG
##JJJJxFx
##ddddOO
##yyyAA
##VVVVppppjjj
##ppppggg
##nFtttttttt
##rrrPPPPP
##uuuuuuuuuuuuuug
##pppjjjWWWWWWWW
##RRRRRyR
##yyyyyyyF
##LLsssssuuuuuugg
##VVVypppppjjj
##oVppp
##oobbkkkQ
##ttttttttteet
##cccccccUUUU
##yyffii
##QooVVVVyyyy
##mmmmmmmmmmmmmmmmmmmmmmmmmmmmmmmmmmmmmmmmmmmmnn
##Fyyyyf
##obbbbbIIkk
##BJB
##aF
##QOO
##drF
##BCCCC
##yyFff
##wwgg
##XXbb
##SSSSTTTTTTTTT
##QQQQobbb
##bbbkkkkQQ
##SSSll
##rrrPPPP
##SSSSSGGGGGGG
##KKKKKKKKOF
##mnnFn
##EEEEEEEEEQQQ
##dddddLLLsss
##orryyyyyfff
##cccccccxxxxxx
##yyffPPP
##pppppuuuuujj
##oLAAAAAAfff
##BBBBBBBBBBUU
##mmmmmmmmmnmn
##Lsssssgg
##DDDDDDiiiiii
##ppssssuuggg
##FOvvv
##zzzzzzzzzzzzOOOOO
##OOOOFOO
##nFynnn
##FQQQQQ
##FTTTTTTTTTTTTT
##KEEEEEEEEEEE
##JQJ
##coVVV
##KKEEEEEEEEEEE
##ooOOO
##BBBBXXXXXXXXX
##VVVppkk
##llllQQoo
##RRRRMMR
##QoLLLLssss
##sssuuuuuuuuugg
##SSSEEEEEE
##LLssssgww
##ooVVpppj
##ooVVyyyyyff
##BBBXXXXXXXXX
##rrrrrAAff
##rrrrryyffff
##GGGGGxxr
##RRRRRRyyy
##GGGGGGGcx
##nFnt
##gwwwwyyyyff
##orryyyyyff
##QQQQQQx
##QoVVVpppjj
##UUUUUUUT
##xVVVpkk
##pPPPll
##SSSSaaaGGGG
##SzzzOOOOO
##SSSSaaaaGGGGGG
##rHHHHHHHHHHH
##ooHHHHHHHHkk
yyn
##Vpp
##UTT
##ooHHHHHHHIII
##UUTT
##UUEEEEEEEEEE
##uuujF
##AAAyw
##BBBBBBBBBBBBBBBBBxxxx
##yyyyyyMMMM
##rrrrrKKWWWWW
##BBBBBXXXXXX
##OOOOOOrr
##ttttteeeeee
##qqqqqqEEEEEEE
##pppjwwww
##EEEEEEEEEEEEER
##oLLssssuuuggg
##pssggg
##QobbbbbbbIIIII
##ooVVyyyDD
##FSSSSaaaaa
##FbbbIII
##Gx
##ennnn
##pDDDUU
##Udddddddd
##LAAAAAAAffff
##VVpk
##rrKNNNNN
##ccXXXXXXXX
##rrrrKF
##PPPFP
##CCCCCT
##pppjjjl
##pppjjjiiii
##ooVFV
##LLLssggww
##RRRRRRRMM
##VVVyyyDDDDiiiii
##mmmmnCCCCCC
##oLAA
##uuugggggg
##yfffiiiiii
##FfWWWWW
##orrrryyyyfff
##SSSSaGGG
##FSSSaaaaaaaa
##qqqqqqqqqqqTTT
##OOOFOOO
##JJJJJJJJJJJJxxxxx
##AAAAwwy
##zRRR
##rKKKKNNN
##AAAAs
##kkkQQQoVVV
##QoooVVV
##BBBBBBBBBBBBBBBBBxx
##pppjjjlll
##pppjjjMMMMMMMMMMMM
##pppjjjQQoVV
##zzzzzzzOOOOOOOOOOO
##obbIIIIy
##pppjWWWWWW
##pjjQQQQ
##rrrrrrrKKNNNN
##BBBBBBBBBUUUUUUUU
##BBBBBBBBBBxxV
##oorrryyff
##oorrrAf
##VVyyDDDDD
##TFTT
nnttt
##QoVVVVVII
##lSSSTTT
##drrrrrrrr
##yyFn
##yyFy
##zzOOOOvvvvv
##HHkPPP
##rryyyyyff
##EEEEFEEEEEEEE
##oooVVVy
##bbbbbbbbbbIIIII
##ccccccccxxxxxx
##EEEEEEoVVVVV
##LLLssggwww
##yyyyyyyyDDDD
##eeeeeeeeeeeehhhhhhhhhh
##pppjjjjjWWWWW
##pppjjjjjddddd
##etee
##QoVVVVI
##AAAAAAffP
##yyyyyyfffiiiiiiii
##MnMn
##yyyyffffiii
##lSSSSTTT
##mmmmmmmmmee
##OOOOFvvvv
##FAAAAA
##RK
##HIIIIII
##Au
##QQEEEEEEEEEEEE
##zzzzOOOOOvvvv
##llllllllTTTTTTT
##MMMMMMMMtt
##oVVVppppppjjj
##LLLsssugwwww
##cccccccccccccccxxx
##ppjjWWWWWW
##BBBBBxxVVyy
##GGGxxx
##obbbbbbkkPP
##TTTTTTTTTTooo
##QoVVVVpp
##HHHHkkQQQQ
##psssgg
##QorHHHHHkk
##IIIyyppjjjjj
##HHkkl
##pssgF
##RRRRRRRRRRRCCC
##lllccccxxx
##WFWWWW
##WWWWaaaaaaaa
##RRRRn
##HHHHHHkkSSSS
##JJJxFx
##hhhnnnnnn
##ooVAPPPP
##SSSSSSzoor
##GGGGGGGUUUUU
##GGGGGGGxxLLsss
##gwwwwyyyyfff
##bbbbbbbIIssss
##oorrAAfk
##mmmnnnnCC
##oLLLssssuuuggg
##FaGGG
##uwwwwpppjj
##IIIIyyppjjj
##gggQrrr
##fnnn
##Fvvvvvv
##pgwww
##suuuuuggg
##SSSGGGGGGGxx
##ooVVppj
##QQoHHHHHHkk
##AAAAAAAgg
##BBBBBBxxxrr
##VVVypppj
##LAAAAAAAAAAAAAfff
##eeeeeeeeeeeeeehhhhnn
##eeeeeeeeeeeeeehhhhhnn
##KKKKKKKOOOO
##pppppjjjjQQQ
##fPNN
##VVyyppjj
##SSzzzzddddd
##pppppjjjjjWWWW
##fKWWWWWWW
##JJJJJxLLsss
##yyyyyyyyfffiiiii
##eeeeeeeeehhhhhhnnnnn
##hhnnCCCCCC
##oXXXXXII
##JVVV
##zzFS
##rrAAAAAAAA
##lllEEEEEEEEE
##zzzOOOOOOvvvv
##oVVVkkkQQ
##RRRMMR
##sssssuuuuuuuuggg
##qqqqqUUU
##mmmmnmmnn
##QoVVVPPPP
##FnnCCCC
##pssssuuuuuugg
##psssugggg
##lQT
##uuwwwwppj
##eeeeeeeeeeeeeF
##Qorrrryyff
##eeehhhhhhnn
##ppppppjwwww
##FVVVV
##kQF
##UEEEEEE
##qMM
##JJUUx
##rrrryyyy
##mmmhhhhh
##wwwyyyy
##pppjjjjdddd
##ccccccccxxxVV
##zzzzzOOOvvvv
##ooVAA
##SSSSSSoF
##aaaaaaoo
##MMMMMMMMMmmmm
##MMMMMMMmm
##aaaaaaaGGG
##rrrrrrKKKNNNNNNNN
##ooVVVVpk
##qqqqqTTTTTTT
##WWWWWWWWWWWWW
##oorrfff
##etn
##LLLLsssssuggg
##WWWWWWWWWTTTT
##oLLssssswwwww
##yyyffffii
##KKKKKKKKKKKKE
##rHHHHHHHHHHk
##QQobbbbbI
##rfPPPP
##CT
##rrPPPPPP
##tttteeeeee
##rrrrAAfff
##QoLLssssss
##PPPQoo
##rrrI
##LLLssssggggg
##QQQddddd
##AAAyyyy
##oVVAPPP
##LLLsssuuuuuuuuuuggg
##BBBxVVVV
##KKKKKKKKF
##mmnmmmmnn
##MMMMMMMMMmmmmmmmmmmn
##MMMMMMMmmnn
##BBBBBBUxx
##qqqqqqTTTTTTTTT
##JJJJJJJUx
##JJJJJJJxxLLsss
##LLLLsswwwwww
##MMMMMMMMMMMMMmnn
##SSSSSaaG
##uwwwwppjjj
##orrrrryyfff
##oobbbbbbbbkPPP
##OKvvvv
##SSSzzzzzzzOOO
##ooHHHHHHHHII
##eeeeeeeehhhhhhhnnn
##hhhnnnnCCCC
##Mtttttttttt
##HHkkkQQ
##WWWWEEEEEEEE
##QQQQoVVVVy
##lllTTTTTToo
##pppjjjjWWWWWW
##ooVVVpppj
##KKKKKKKEEEEEEEEEEEE
##Fyppjjj
##fPlllll
##oooVVAPPP
##SSzzzdd
##Qorrryyfff
##MMntttttttt
##uugFg
##KKKKKKKKKKKKOO
##SSzzzzzzzOOOO
##eeeeeeeeeeehhhhhhnnnn
##zFaa
##rA
##lccccxx
##bbIIIIy
##llccccccxxx
##WWWWaaaaa
##QoHHHHHII
##iiiiWWWWWW
##obbbbkkkSSSS
##LLLssuuuuuuujjj
##yyyyyyyyppjjj
##BBBBBBxxVVVV
##MMMMMMMMMMMnnnnnn
##oobbIIIIy
##orrAAAAAff
##VVVyyyppjjjjj
##QLLLsssuuuuuuuggg
##QobbbkkkQQ
##QQQLLLsssswwwww
##SzzzOO
##obbbIIkkk
##SSSSzzzzzOOO
##IHIIIII
##eeeeeeeeehhhhnn
##mmmmmmmmmmmmmmmmmmmmmmmnnnnnnn
##AgF
##Okkk
##zzoV
##kkRR
##ppppppppjjjjjjj
##rrrKKWWWWWWW
##obbbbIssss
##KKKzzzzzz
##cccF
##oooVVVVy
##LLLssuuujjjj
##MMMMMtttttttttttttttttttt
##bbbbbbIkk
##GGGGGGGxxF
##CCCCCCCTTTTTT
##lllllllTTTTTTTTTTTTT
##mmmnnnCC
##QLLLssssugg
##QLLLssssugggg
##KKKKKKKKKOOO
##eeeeeeeeeeeeeeeeeeehhhhhhhhh
##oLLLssswww
##MMnMM
##KKKKKKKKKKKEEEE
##DDDiWWWWWW
##SzzzzzO
##lSSSTTTT
##llllccccxxx
##QQLLVV
##eeeeeeeeeeeeeeeeeeehh
##mmmmmmmmmmmnnnnnnnnn
##nfff
##yAAfff
##EEQ
##rryyyyy
##rrAAfff
##KKKKvvvvvv
##VVVk
##EEEor
##LLLsssuuuuuuuuuugg
##BBBxxF
##qqqMMMMMMMMMMMMMMMM
##vvvvvTTTT
##eeeeeeeeeeeehhhhn
##QoVVpkkk
##pjjl
##QQQQQQQQQQQQQQQ
##yDDDUUUUUU
##yffPPP
##QLLLssssuugggg
##qqqqqqqqqqT
##SSSSaaGGGGGGGG
##eeeeeeeeeeeeeeeeeeeeeeeeehhhhhhhh
##BBBBBBBBBBBBBBxF
##zzOOOOOOvv
##nttttttt
##ynnnnnn
##oXX
##tnnnnnn
##zzOOOOOOvvvvv
##pppggg
##LLLssssuuuuuuuuuuggg
##ooVVyyyff
##QQorrrrrrr
##mnnnPPPP
##JJJJJJJxxVVVV
##ppppjjjWWW
##yDDDDDDi
##JJJJJJJJJxxVVV
##GGGGGGGGGGc
##SSzoo
##MMMMMMMMntttttttttt
##pkPllll
##oLLVV
##QLLLLssssss
##eeeeeeeeeeeeeeeeeeeeeeeeeeeeehhhhh
##rAPPPP
##JxxV
##lCCCC
##VVyyyyDDD
##LLLLLLssss
##tttteeeee
##ppppuuuuuujjj
##QoooF
##ooVVVPPP
##qqqFqqq
##mmmnmmmnn
##mmmmmmmmmmmmmmmmmmmmmmmmmmmmmnnnnnn
##RRRRRRRMMM
##KKKKKKaa
##yyfffiiiiiii
##obbbbbbbIIIIIII
##yfffi
##BBBBBBBBBBBxxVV
##HHklll
##DDDDiWWWWWWW
##oLAAAAAAAAAAAff
##PPPPllT
##ooVVVVVVII
##fr
##RMMMMMMMMMMMMM
##UEEEEEEEEEE
##DDUUUUUUU
##ookkkkQ
##AAAAyyy
##QQQQoor
##QQQQQobbbbbb
##ppppuuuuuuuu
##yyyyyyA
##LLsssssugwwww
##oFLLsss
##fFPPP
##MMMMMMMMMMMmmnF
##pppppuuuujj
##JJJJJJJJJxxV
##SSSSaGGGGGGGG
##IIIssssggg
##SSSzzzOO
##oVVVyyypppjjjjj
##JJJJJJJJJJJJJJJJxx
##Pv
##EGG
##pFpjjjj
##yyppppjjj
##SSK
##QQLVVV
##JJBBJ
##qqMq
##bbbbHkk
##ddddLLLsss
##QoLLLssssggg
##nFM
##GGGGGFG
##mmmmmtttttt
##QQQQQLLLsssggg
##ete
##QorrAAff
##uuuuuuuuugggllll
##yyyDDDDDiiiiiii
##ooVVyD
##JUx
##llEEEEEEEEE
##bbbHHHHk
##ppppuujjjj
##TTTTTTTTzzzzz
##rrryyyyyyff
##uuuuuuuuuuuwwwww
##LLLsssuuuujj
##BBBBBxxVVVV
##GGGGGGGxxxV
##rrrrrrK
##cccccxxF
##mnnnPPP
##QQQQQQT
##oobk
##QoVVVF
##QobbbbbIIssss
##LLspp
##uuuuuuuuggllll
##SSSzzzzd
##FzzOOOOO
##BBBBBxLLsss
##eeeehhhhhhhnnnn
##oOOOOOOvvvv
##WFWWW
##LLAAAAF
##ddNNNN
##kkSS
##qqqqFqq
##zzzOOvvv
##pppjjjjq
##lllllccccccxxx
##oobbbIsssss
##oorrAAAfff
##Lssssuuugg
##XXXXXIIy
##rrrrrrrKKNNNNNNN
##QoVVVppppjjj
##pppppuuujj
##QobbbF
##QorVV
##FKOOO
##oLLssssgggg
##qqqqqqqqqqqTTTTTTTTT
##MMMMMMMnMMM
##yyDDDDDj
##mhn
##KKKKKKKKKKKKKO
##llllcccccxxV
##ppAAAAAAff
##HHIIIIII
##jjQQ
##QQQQQoV
##pppFp
##nFnnnnnnnn
##AAAAAAAAAAAAAAAAAAA
##BBBBBBBBxxr
##ehhhhnn
##tttnFn
##NNNoVV
##EEEEEorr
##TTTTTG
##ppjjjQQoVV
##LLLssssswwwwwww
##WWWQ
##orAAAAAA
##LssssgF
##MMMMMMMMMMMMMMmmmmn
##pssssuuuugg
##QQLLLsssuuggg
##ppppjjjjjWWWWWW
##QobbbbbIF
##MMMntttttttttttttt
##JJJJxLLsss
##pppppjjjjjWWWWW
##oVVVVyyppjj
##eeeeeehhhhhhnnnnnn
##eeeeeeeeeeeeeeeeeeeeeeeeeehhhhh
##yyyyyyffffi
##fvvvvv
##zOOOvvv
##zOOOOOvvvvv
##Mttttttttt
##lcccccccxxx
##zzFzzzz
##BBQx
##llccccccccxxx
##rrHHHHHHHk
##rrAAAfff
##MMMMMMMMtttttttttttttttttt
##rrrrKKWWWWW
##tttttttteeee
##rrrHHHHH
##AAAgF
##zzzzzzzzzzzzzzzzz
##ooVVVDDDDD
##EEEEEoVVVVV
##pppjjjWW
##LLLsswwwwwww
##JJJJJxxLLssss
##mnnnmmmn
##Lsssuuuugggg
##LLLLsssssgggg
##oooVVyyyy
##mmmmnnnCCC
##SSzoor
##uuwwwwpppjj
##SSSSaaaaaG
##OOrO
##meeeeeeeeeeeeeeeeeeeeeeeeeeeeeeee
##SEEEEEEEEEE
##rb
##kqq
##Mqqq
##mmF
##SSFaa
##rrHHHk
##yyyyMMMM
##nnnnt
##GGGGxxxx
##SSSSzzzzzzzOO
##yyyMMM
##sssgggP
##KKKKKKKKEEEEEEEEEEEE
##wwwwwyyyfff
##oVrF
##CCCCCCCF
##qqqqqqEEEEEE
##ttttttteee
##LLLLFs
##qqqqqqqqqU
##uuuuuuuuggglllll
##FkkQQQQ
##QobbbbbbbbIIII
##mttttttttttttttt
##FQQLLLssss
##EFEEEEEEEE
##JxFJ
##XbbbIII
##yynnnnn
##SSQF
##ppqqqqq
##kkkkkQQ
##llllEEEEEEEEE
##kkkJJJ
##mnmmmmmmmmmn
##BBBxxxVV
##cccxVVVV
##ooVp
##XXXXXXIIIII
##rrrrrrffff
##mmnnmmnn
##qqqqqqTTTTTTTTTT
##ppppppuuujjjj
##FfWWWW
##LLAAAAAAAAAAAAAff
##FFi
##FaGGGG
##Lsssssgggg
##SzzzzO
##FDDiiiiii
##SSSSzzzzOO
##QQQobbbbI
##mmmmmmmmmmmmmmmmmmmmmnFnn
##XXXXXXXkUUU
##eeeeeeeeeeeeehhhhhnnn
##mtttttttttttttttt
##pwj
##BBxxrrr
##obbbbkkkkQQ
##lllEEEEEEEEEE
##yyyyyMMMMMM
##rrrrrFr
##EEEEEEEV
##ttttttttttttn
##MMMMMMMnFnnn
##mmmmmmeee
##rrrrrryyyfff
##KNNNNNNNN
##JJJJJJJJJxxxV
##QQLLLsssgF
##LLLLssssswwww
##SSSSaaaGG
##ppFPP
##SzzzzzOOOOOO
##QQLLLLssssggg
##FSSSSa
##RooVV
##oHHIII
##QRRRRRRR
##LAAAAwww
##AAgP
##AAfFf
##kkvvvv
##RRRRyR
##MMMMMMMMMMMMMMMMMMn
##yyyyyDDDDDiiii
##KKKFKKK
##lllllcccx
##GGGGGGcx
##ooVVkPPP
##oooLLssss
##WWWWWaaaa
##ppjRRR
##pkkQF
##MMMMMMMMMMMnFnn
##bbbbbbbkkkSSSS
##KKKKKKEEEEEEEEEEEE
##lQQooV
##BBBBBBBBBBBUUU
##SSzzzO
##mmmmnnnnCCCC
##FpPPP
##PFP
##rd
##lEEEEEEEE
##bbHHHHHk
##rrHHHkk
##GGccx
##zzzzrrrr
##obbbbbbbbbbbIIII
##QQQorF
##QQQobbbbbk
##LLsssgggQQ
##ppjjjMMMMMMMMM
##EEEEEEER
##vvvvvT
##LLLsssssuuuuuugg
##MMMMMMMMMMMMMmmmmmmmmn
##Fypppjjjj
##yyDDDiiiiiiii
##mmmmmmmmmmmmmmmmmmmmmmmmmmmmmmmmmmmmmmmmnnn
##QQobbbbIIssss
##FzOOOOO
##mmmmnFnnnnn
##ddddddddddddF
##SSSSSSaaaaaaaaaaaaaaaaa
##eeehhhhhhnnnnn
mmmmmmmmmmm
##nttttttttt
##QQbbbbbIII
##BBVVVV
##RRVVVVy
##RRoR
##zzzzOOvvvv
##yyyMMMM
##BBBBBBBBxxLLssss
##GGGGGGxxLLssss
##oVVVVppppppp
##WWWWWWWcc
##vvvvvvT
##QQQQQL
##KKKKKKzz
##QQoVVVAPPPP
##obkkkkQ
##QQoVVVVVyyyy
##MMMMnttttttttttttttt
##QQQLLLsssgwwww
##zzzzOOOvv
##eeeehhhhhhhnnn
##ppgjjj
##Hnn
##DfP
##EEoo
##AAgPPPP
##ooAAAAAAAA
##PPPQoV
##uuuuuuuuuuuwwww
##JJJxxLLsss
##HHHkkkk
##XXXXXXIIy
##LLLssuuuuujjjj
##LLLLssgggP
##yDDDDDDiiii
##Fnntt
##ppsssgggg
##QQQoVVkk
##QooVVVVII
##eeeeeeeeeeeeeeeeeeeehh
##SzzzzzzOOOOO
##uuuuuwwwwwwppjj
##XXXXkUU
##Nvv
##dOOOO
##mmmmmmmmhh
##llllccccccccccxx
##tttttttteee
##EEEVV
##BBBBBBBBxVV
##mmmmmmmmmmmmmnnnnnnnnn
##bbbbbIIIIy
##ddddddddrrr
##cccccccccccccccxx
##GGGGGGxxF
##wwwwwyyyff
##wwwwwyff
##oVVVVppppp
##llllllTTTTToo
##mmmmmmtttt
##yyyyfffP
##XXXXXIIIy
##QQQQQQQQo
##eeeeeFn
##Lsssuuuuuuuggg
##uggggQ
##QQoVVVVyyyyy
##uuuuuggllll
##yyyyyyyyyppjj
##ppppjjjjjQ
##Ffiiii
nntttt
##QQorrAAA
##MMMMMMMMnttttttttt
##pDDiiiii
##oVVVVVVII
##UxFU
##cccccccccccccxxxxx
##zT
##lccccccxxx
##ppr
##KKaaaaa
##bbbkPPP
##SSSEEEEEEEE
##LLssssgggQQ
##MMMFy
##mmmmmmmmmmmmmmmmmmmmmmmmmmmmmmmmmmmnnnnn
##rrrrrKKKNN
##ppjjjjdddddd
##ooVyyyyyf
##yyyyyyyMMMM
##oobkkkkQQQ
##LLLsgww
##obkkkQQ
##SSSSSSSaaaaaaaaaaaa
##IIsssssuuuggg
##LLswwww
##uuwwwwpjj
##obbbbIIkkk
##QQooVVVyyyy
##RQRRR
##GFT
##EFEEEEEEE
##Dj
##WNNN
##Uxxrrr
##LAAAAAAffff
##rrOO
##bbbbbbbbbbbIII
##AAAAfFf
##QoHHHHHHHHHk
##obbbbbbbbbbbIII
##QQQRRR
##LLssssggww
##QooHHHHHkk
##GGGGGGxxxVV
##ppjjjjll
##pppjjjMMMMMMMMM
##HHHHHHHHkkk
##rrrrrrKWWWWWW
##ccccccxxxVVV
##qqqqqFqqq
##ttttttteeee
##mmmnnmmmnn
##yyDDDDDDiii
##XXXXXXXIIIy
##QorHHHHHHHk
##JJJJJJJJJJxxVV
##eeeeeeeeeeeeeeeeeeeehhhhhhhhh
##pjjjjjjj
##DDDDiiiiiiiiii
##BBBBxLLsss
##pffii
##QQQLLLsssssggg
##oorrrrfff
##mmmmmmmmmmmmmmmmmmmmmmnFnn
##Foor
##oAAAAA
##cUUUU
##Ayyyyy
##ppggg
##ppfP
##BBxFx
##wwMMM
##CCFC
##KKKKzzzzz
##QQQQobb
##QQQEEEEE
##QoobbIIII
##mnmmmmmmnn
##ooVVyyyyyfff
##pppjjjW
##TTTTTTzzzzzzzz
##MMMMMMMMMMF
##LLLLssuuuujjj
##mmnnnmnn
##QooVVVVVyy
##QooVVAPPPP
##mmmmmmnmnn
##GGGGGGGGGcc
##pffiiiiii
##yyyyyyyyfffii
##llllcccxxVV
##eeeeeeeehhhhhhhnnnn
##Kddd
##uss
##Lpps
##eennn
##bbbbHH
##MMMMMMMMmmmmmmmmn
##oVVVPPPPP
##LLLsssuuuuuujjj
##bbbbbkkkQQQ
##bbbbbkkkQ
##mmmmmmmmmmmmmmmmmmmmmmmmmmmmmmmmmmmm
##GGGGGGcxxxx
##WWWWWWaaa
##TTTTTzz
##EEEEEEEoVVVVV
##mmmmmnnnnnnnnnnnn
##pppjjMMMMMMMMM
##QFJ
##RRRRRRCCCCCCCCC
##MMMMMMMMMMmnnn
##LLssuuuuuujjj
##rrrrrrKKKKKNNNNN
##mmmmmmmmmmmmmmmmmmmmmmmmmmmmm
##WWWWWWWWTTTTTTTTTT
##eeeeeeeeeeeeeehhhhhhhhhh
##oobkkkQQ
##FjP
##ppppjjjjji
##oLLLsssswww
##ppssgF
##obbbbIIk
##mmmmmmmmmmmmmmme
##yAAAff
##fCCCCC
##rKKKNN
##TTGGGGG
##aazzz
##QQrrrrrrr
##KKKKWWWWWWWWW
##RRRRyyyy
##lllcccccccccxxx
##LLLsssuuugF
##yyyyyypjj
##RRRyyyy
##kkkkQQQQQQQ
##ffffP
##pppjjjq
##ooVyyyyyyyyyy
##LLLssuuuuujj
##pppjjP
##MMMMMMMMMMmnF
##FnCCC
##Lssssuuuuugggg
##QQQQQQQQoo
##XXXIIIII
##ppsssuuuugggg
##SSSSaGGGGGGx
##IIIssssuuuggg
##Qorrryyyfff
##bbbbbbbbbIIIIII
##uuuwwwwppjjj
##SSSSSaaaaaaaaaaaaaaaaaaa
##HHHHHHIIff
##QQQLLLLssssggg
##tett
##lTTTTTToo
##SSEEEEE
##BBcc
##HHHHIIIIII
##ddddVV
##QQQQQQQoVVVV
##rrrrAf
##kkkR
##SSSoooV
##PPPPQoV
##nnnnnnqq
##mmnmnnnnn
##rrrrrKKWWWWWWWW
##obbbbbHHH
##obbbbbkkkQQQ
##LLLLsssuuuuuuggg
##ugggwww
##tttttteeeeee
##ddddddVV
##mmnnnCCCCCCC
##pppppjjjjWWWWW
##MMMMMMnMMM
##bbbbbbbbbkkSSSS
##Qorrrryff
##pDj
##llllccccxxV
##QQobbbbbk
##FOOOOOO
##FHHHkk
##bHHHHHH
##bbkkkkQ
##rrKKKNN
##RRRRVVyyyy
##SSSzzzzzzzzzzzzz
##rrrKKKKKNNNNN
##QQQTT
##PPPPQQLLLsss
##LLLsssuuuujjjj
##lllllcccccccccxx
##rrrrrKKKKKNNNNNNN
##RRRRRFR
##MMMMMMtttttttttttttttttttt
##LLLsssssuuuugggg
##QFE
##EEEEEEEEEWWWWW
##VVVyDDDUU
##QoVVkkkQQQQ
##yyDDDDUUUU
##FyA
##Lsssuuugggg
##ppppppF
##uuuuuugglll
##ppkkQ
##qqqqqqqqqqqTT
##oHHHHHHHHHkk
##zzzzzzzzzzzOOOOOOO
##SSSaaGGGGG
##DDDiWWWWWWW
##ppjjjjjji
##zzzzzzzzzzzzOOOOOO
##FMnnn
##XXXXXkkU
##nttttttttttt
##KOOOOOOOOOOOOOO
##Dk
##eehhhhhn
##QQbbbbbII
##JJQx
##LLq
##GGooF
##QQQQLLL
##KKKd
##pppjjjjddddd
##uuuuuwwwppjj
##MMMMMMMMMMMMmmmnn
##CCCCCUU
##LLLssuuuuuujj
##MMMMMMMnnnnnnn
##MMMMMMMMMMmmmm
##VVVyDDDssss
##IFr
##mmnnmmmmn
##QoVVpk
##cccccccxxLLssss
##JJJJJJJxxF
##mmnnnnC
##uuuuuuuggw
##AAAfPPPPP
##qqqqqqqqqqqTTTTTTTTTT
##MMMMMMntttttttttttttt
##mmmmmmmmmmmmmmmmmmmnFnn
##oOOOO
##zOOOOOOOOOOOO
##MMyn
##jjf
##WWEEEEEEEEEEEEEE
##JJJXXXX
##QQQorV
##AAAAAAPPPPP
##LLLsssssww
##MMMMMMMMMMttttttttttt
##MMMMMMMMMMMmnF
##IFy
##JJJJJJJxFJ
##orrryfff
##Fypppjjj
##Fpf
##mmmmnnnnCCC
##oLAAAAAAAAAfff
##uuuuuwwwwwpj
##IO
##bkkkSSSS
##gPPPPl
##ppy
##ppAAAAAAAAff
##llQQF
##JJJJVVV
##IIIIIIIIIII
##rrrKWWWWWWW
##LLssssgggQQQQ
##yyyyyFfff
##EEEQ
##qqqqqqqqTTTTTTTTTTTT
##ooVVVpppppjj
##WWWaaaaaaa
##RRRRRRn
##ooVVVVpppjj
##MMMMMMMMMMMmmmmmmmmmmmn
##yDDDDssss
##rrrrrrrKKKKNNNN
##ppsssuuuuuuuggg
##IIIssssuuggg
##ppppjk
##mmmmmnnnCCCC
##SSzzzzzddd
##iiiiiSaaaaaaaaaaa
##oLLLssssswwww
##QQQLLLsswwww
##KSSaaaaaa
##Mttttttttttt
##nnttt
##wwMMMMM
##pppAAAAAfff
##rrryyyyyffff
##AAAAAAAAfP
##AAAAAAAAAAAAfF
##PPPPSS
##yyyyyppppjjj
##GGGGGGU
##JJJBBB
##WWWWWWE
##oobbbbIIIIyy
##oobbbbkkPP
##JJJJJJxxxrr
##mmmmmnmmmmn
##QoVVVk
##QoVVVpppjjj
##ooFrr
##QorrAAAAff
##LLLLswwwww
##SSSzoorr
##mmmmmmmmmmmmmmmmmmmmmmmmmmmmmmmmmmmmmmmmmmmmmmmmmmmmmmmmmmmmmmnFmmmmmmmmmmmmmmmmmmmmmmmmmmmmmmmmmmmmmmmmmmmmmmmm
##SSSSzzzzO
##RMMR
##Wvvv
##lQoV
##MMmnn
##jji
##WWQQ
##qqqqTTT
##rrrrAAAAff
##SSSFaaa
##LLssssggw
##zzzOOF
##Qoobbkk
##LLLsssgwwwww
##ccccccccxxV
##qqqqqqqqqqqqqqqqqqqq
##QQoLLssssss
##mmnCCCCCCC
##WWWWWEE
##ppppjjjjW
##VVVyypppjjjjjj
##EEEEEEEEEEWWWW
##eeeeeeeeeeeehhhhhnnnnn
##lllllllTF
##ehn
##HHHHHHkklll
##mmmmmmmmmmmmmmmmmmmmmmmmmmmmmmmmmmmmmmmmmmmmmmmmmmmmmmmmmmmmmnFnn
##SSSSSaoo
##obbbbIIsss
##obbbIIk
##SSSzoor
##mmmmmmmmmmmh
##SSzzzzzzOOOOO
##ooLAAAAA
##DFDDD
##RTR
##Qvvvv
##lUUUUUU
##lllC
##AAAAAAAAAAAAAAAAf
##LLssssuuuuuuugggg
##KKKWWWWWWWWWW
##kkkkSS
##QQoLLLssssss
##mmnCCC
##rrrrrKKNN
##zzzzzOOOOOOOOOOOO
##EEEEEEV
##WWWWWaaaaaaaa
##QFN
##AAAAAAAfFf
##yyyyyffi
##obkkkkQQQ
##KKKNNNNNNG
##HHHHHIIff
##yyyyyyyyyyyffff
##hhnh
##HHHHHHHHHHHIIII
##QbbbbbIII
##zFz
##ryyyff
##lccccccccccc
##lcccccccccxx
##qQ
##ppAAAAAAfff
##rrFrrr
##QQQEEEE
##uuuuuuuuuuuuuuugggg
##ooVVD
##MMMMMMMMMMMMmmmmmmmmmmn
##EEEEEoV
##UUUUUEEEEEEEEEEE
##JJJJJxFx
##MMMMMMMMMmmmmmmmmmmmn
##MMMMMMMMMMmmmmnn
##EEEEEEEEERR
##oobbbIIIIIII
##oobbbIIIIyy
##MMMMMMMMMMMmmmmnn
##EEEEEEEEEEoVVVV
##dddddV
##QQQQQLLL
##pppjjjjjdddd
##VVVyyyppj
##yyyyffllll
##SSSSaaGGGGGGx
##VVyypppjjjj
##bbbkkPP
##uwwwwwppjjj
##Frrf
##ooHHHHHHHHHHk
##mmmmmmmmmmmmmnFnnn
mnnn
##SSFzz
##ookkkkQQQ
##ccccxxxVVV
##EEEEEEEEQQQ
##ppppww
##ehhhhnnnn
##TTTTTo
##MMMMMMMMMMmmm
##MMMMMMMMMMmmmmmmmmmmmn
##qqqqqTTTTTTTT
##oobbbbbkkPP
##fPPF
##yyyyfffiiiiiiii
##MMMMMMMMMMMMMnnnnn
##pppppuuuujjjj
##MMMMMMMnttttttttttttt
##KKKKKKKKKKKKEEEEEEE
##pppsp
##uuuuwwwwwwpjj
##FLs
##KrF
##QQRRRRR
##zzaaaaaa
##zzoorrr
##ppggj
##BBUUUUUUUU
##VVVppjjj
##SSSSFa
##RRRRCCCCCCCCC
##LLssssuugwwww
##PPPPoVVV
##yyyyypppjjjjjj
##KKKv
##eeeeeeeeeeeeeeeehhhhhnnn
##ooVVAAPPPP
##RRRr
##EEEEEFEEEEEEE
##pppjjlll
##HHHHHHHff
##RRRRRRMMMM
##QQQQQE
##Fnttttttt
##JJJJJJJUUx
##bbbbbbbbbbbbbkk
##IIssssuggg
##oLsssss
##mmmmnnnnCCCCC
##oVVVyyyppjj
##eeeeeeeeeeeeeeeeeeeeeehF
##SSSaGGGGG
##uuuwwwwwwpjj
##QJQ
##FAAAfff
##RyR
##kN
##BBUUx
##rrA
##mmmmmmmmtt
##rrrrAAf
##LLLssssgwwwww
##LLLssssuuuugF
##mmmmmmmmmmmmmmmmmmmmmmmmmmmmmmmmmmmmmmm
##wwwwwff
##LLsssgggQQQQ
##mmmmmmhhh
##VVVyDDDDsss
##CCCCCCCooo
##ttttteeeee
##FSzzzzzzz
##Lssssuuuuuuuuggg
##oLLLsssswwwwww
##ccccccccccxxVV
##pppppjjFj
##XXXXXXXXXXIIIII
##FaaGG
##JJJJJJJJJJJJJJJJx
##SSSSzzzzzzOOO
##AAAAAwwyy
##QooVVVVVII
##RER
##bbHHHHkk
##ssuuuuggg
##GGFG
##jjjQQ
##rrrKKKKKNNNN
##LLLssssgggQ
##lllccccccccccc
##mmmnCCC
##WWWWWJ
##nnnnnnnnnnnnnnnnnn
##MMMMMMMMMmmmmnn
##rrrrrrKNNNNN
##vvvvvvTTT
##VVVyyp
##orryyyff
##dddddddO
##ppjjjjjdddd
##yyyyyfffiiiiiiii
##FlTTTTTTTTT
##yffiiiiiii
##FfWWWWWW
##mnnnnnnCC
##JJJJJJJJJJUUUUUUU
##KKKKKKKKKKOOO
##mmmmmmmmmmmmmmmmmmmmmmmmmmmmmmmmmmmmmmmmmmnnn
##MMMMnMM
##ooVVVyyDD
##JJJJJxV
##hhhnCCCCCCCC
##OKOO
##eeeeeeeeeeehhhhhhhhhh
##WEEEEEEEEEEEEEEE
##lEEEEEEEEE
##LAAAAf
##VVppjj
##JJcc
##VVVVkk
##rrryyyyyyfff
##zzzaaaa
##Qoobbbbbkk
##mmmmmmmmmmmmmmt
##obbbIIIyy
##WWWEEEEEEEEEEEE
##oFoVVV
##ooVVVVppjj
##Fnmm
##qqqqqFqq
##RRRRRRRn
##qqqqqqqUUU
##yyyDDDDUUU
##qqqqqqqqqTTTTTTTTTTTT
##ppppppuuuuujjj
##uuuuuugglllll
##yfffP
##SzzOOOO
##KKKKKKKKKKKEE
##MMMMMMMMnMMM
##FOr
##mmmmmmmnFnnnn
##eeeeeeehhhhhhn
##OzO
##eeeeeeeeeeeeeeeeeeeeeeeeeeeeh
##hhhnnnnCCCCC
##QQobbbbbbIIIII
##kW
##guggg
##EErrrrrrrr
##QooFV
##GGGGGGxxxV
##zzzzzOOvvv
##obbbbbkkSSSS
##yyyyyyyynnn
##VVVyDDDDDi
##mnnnnPPP
##ppjjjjjQ
##ppppjjWWWWWWW
##QobbbbbkPPP
##pkPll
##RRRRRRRRRRRCC
##JJJJJJJJJJJJJJJJxxxx
##uuuuuwwwwwwpjj
##llccccccccx
##mMMM
##Fyyyyyyyyy
##eehhhhnnnn
##HHrr
##mmmmmmmmnFnnnn
##ookkkQQQQ
##QoHHHHkk
##kkkEEEEEEE
##BBBBBBBBBBBBBBBBBx
##LLLsssggggg
##qqqqqqqqF
##kkkkS
##rrrrryffff
##ooVI
##ooVyyyyf
##MMMMMMnnnnnnn
##oVpppjj
##RRRRRRRRRRRRCCCCC
##zoHHHHHH
##FSST
##FKvvvvv
##yyyyffffff
##ooVVyyyD
##llllcccccccxxVV
mmmmmmn
##Qzzzz
##Knn
##Mtttttttttttt
##WEEEEEEEEEEEEEEEE
##WFWWWWW
##cxxxVV
##ppAAAAAAAfff
##ooHHHHHHHII
##NNQ
##VVVyyyyDDD
##qqqqUUU
##kkkEEEEEEEE
##QQQoobbbbbb
##BBBBBBBBxxxr
##mnmmmmnnn
##GGGGGGxxLLsss
##HHHHHIIIIII
##yyyyyyMMMMM
##mnnF
##HHHHHHHHHHHHHHk
##rrrrrrKKKKNNNNNNNN
##ooVVVVVVy
##gwwwwyy
##XXXXXXXIF
##yDDDDDDii
##pssssuuugg
##kkkSSSSaaaaaaa
##uuuuuuuggll
##uuuuuuugglll
##Fssggg
##BBBBBBBBBBBBUUUUU
##oVVVyyypppjjj
##uugFwww
##ppssssuuuggg
##ppppjjjjjjWWWWW
##eeeeeeeeeeeeeeeeeeeeeeeeeeeeehhhhhhh
##pgkk
##zOOOOOOvvvvv
##zrrrrrrrrr
##KEWWWWWW
##QQBB
##zzoHHHHHHHH
##BBJxx
##JJxxVVVV
##qqqqTTTT
##pppFs
##ppppw
##PPPSS
##obbbbkkSSSS
##zzzOOOF
##EEEFEEEEEEEEE
##SSSSSTTTTTTTT
##OOOOOOOOr
##mnmmmnnnn
##ccccccccccccccx
##ooVVI
##LLsssuuuuujjj
##QQoFVV
##rrrrrKKKKKNNN
##EEEEEEo
##RRRRRyyyy
##pppjjWWW
##KKKKKKOOOOO
##fPPPPQQ
##yyfffP
##QQoVVy
##FFqq
##QRQR
##eeeeehhhhhnnnnnn
##eehhhhhhnnnn
##QoobbbbIIIII
##lllcccccccxxVV
##Rf
##suuuuuuggg
##LVVVVyy
##qMMMM
##qMMM
##GGxx
##QoLLLLss
##mmmmmmmmmmmmmmmmmmmmmmmmmmmmmmmmmmmmnnnnn
##KKKNNNNoVV
##HHHHHHHHKK
##GGGGGGGGcxxx
##eeeeeeeeeeeeFt
##LAAAAAAAAAAffff
##hhhhhhhnnn
##QoVVVp
##QQQQQQQQQF
##ppppppuuuujjjj
##oVVVyypppjj
##Fwf
##MMMMMnMMM
##SSSzzddd
##Szzzzddd
##SzzzzOOOOOO
##eeeeehhhhhhnnnnnn
##uuuuuuwwwwwppj
mmmmnn
##Kaaaaa
##XH
##QQoobbbIII
##EEEEor
##ddOOO
##ooHHHHk
##yyyyMMMMMMM
##GGGGFGGG
##MMMMMMMMt
##kkkQorr
##jjjQ
##zzzOOvvvv
##lllllccccccccxxx
##HHHHHIIIIy
##HHHHHIIIyy
##kkkkQQF
##ppjjjjdd
##TTTTTTo
##BBBBBxxVVy
##KKKKKaaaaa
##KKKKKOOOOOO
##KKKKKEEEEEEEEEEEE
##LLssuuujjj
##oVyyyyyfff
##yyDDDDDDii
##mmmmnmmmmmmn
##AAAffQQQQ
##QQQQQQQQLLLLssss
##ppFpp
##SSSSaaaaGGGGG
##BBBBBBBBBBBBUUUU
##ppssssuggg
##uuuuuuuuuugggll
##oLLAAAAAA
##bbkkkkQQQ
##BBBBxVVVV
##ssssuuuuuuuugg
##GGGGo
##yyyppjjjjjj
##tttttttteeeeee
##bbbIIIIyy
##rrrKWWWWWW
##DDDf
##pppjjjjllll
##bbbbbkPPPP
##QQQoLV
##GGGGGxxLLsss
##KKKKKFK
##KKKKKFKK
##mnnt
##bbbbbbbkPPPP
##pppjjjjjWWW
##mnnnnPPPP
##QooVVPPPP
##QooVVpkk
##FnnCCCCCC
##QLLLsssuuuugg
##MMMMMMMMMMMMMMmmmmmn
##pPPPQ
##SFSSS
##mmmmmnnCCCCC
##QooVVVkk
##QQQLLLssssuuuuggg
##LLsgg
##JJJJJJJJJJJUUUUUU
##bbbIIpkk
##DDDDiWWWWWW
##oLLAAAA
##eeeeeeehhhhhn
##lllccccccxxV
##eeeeeeeeehhhhhhhnnn
##eFtttt
##lQooVVVV
##TTooVVVV
##QQooVVVVyy
##rrk
##rrKKKKNNNNNNN
##IIkk
##kkkvv
##mmmmmmmmmmmmmmmmmmmmmmmmmmmmmmmmmnnnnn
##JJJxxxr
##yyyyyyFn
##AAAAAfFf
##OOOOOkvv
##ooobbIII
##llllllooVVV
##uugggll
##QQQQQQQQLLLLsssss
##QQLLLssswww
##FPQQQQ
##oooVkk
##oHHHHHHHHHHHk
##MMMMMMMntttttt
##ooVVVyyD
##Fyyyynnn
##Fwwy
##eeeeehhhhhn
##XXXXXXkkU
##RIII
##BxVVV
##MMhh
##QQO
##zzooo
##LLAAAAff
##mmmmmmmmmmmmmmmmmme
##kkkJJ
##uuugwg
##lllEEEEEEE
##yyyyypjjj
##rrrrrKWWWWW
##DDDDDiiiiiiiii
##MMMMMMMMMMmmnF
##rrrrrrKKKKNNN
##JJJJJJxVVVV
##RRRRRRRRRRRRCCCC
##mmmmmmmmmmmmmmmmmmmmmmmmmmmmnnnnnn
##qqqqqEEEEEEE
##Fnnfff
##mmmmnnCCC
##MMMMMMMMMMMMMMMmn
##uwwwwwpjj
##SSSSSaaaaG
##DDDiiiiiiiiii
##eeeeehhhhhhn
##QLLLsssssuggg
##QQQLLLLssssss
##rAAAAAA
##KSSaa
##VVpppjjj
##ooAAA
##ooHHII
##ttttnnn
##KKKKFKKK
##kkkEEEEEE
##QQQEEEEEE
##zzzddddddddd
##LLLsssuuuuwwwww
##QQoLVV
##qqqFqqqq
##HHHIIIy
##yyyyyyypppjj
##obbbFk
##XXXXXXXXDD
##oobbbIssss
##ppppjjjWWWWWWW
##XXXXXIIIII
##yyyyDDDDUU
##FSSaaaaaaaaa
##QobbbIF
##Ftn
##zoorrrr
##BBBBBBxV
##eeeeeeeeeeeeeeen
##GFGGGG
##zFzzzz
##MA
##DfPP
##XbbIII
##lQorr
##mmeeeeeee
##ppqqqqqq
##VVVpppjjjj
##SSSSGGGGGGGxx
##uuuuuuuuuuuuugF
##MMMttt
##yyyyypPPPP
##LLLsssuugwwww
##LLsssww
##LLsssggww
##pppjjjQQF
##ooobbbIII
##xVVkk
##XXXXXUUUU
##QoVVVppjj
##KKNNNNNoVVV
##eeeeeFtt
##mmmmmnnCCCC
##ppsssugggg
##ttttttttttttttttet
##oHHHHHHHHHHIII
##SzzzO
##SSzzzzd
##XXXXXXXXXXkk
##QLLLssgF
##eeeeeeeeeeeeeeeeeeeeeeeeeehhhhhhhh
##OKvvvvvv
##QJJJx
##zzrF
##zzOrr
##HHbkk
##GGoVkkk
##bbbbIIIIIIII
##ssssugF
##qqqqFqqq
##rrrrKKKKKNNN
##QQQxx
##uuuuuuuuuuuwww
##WWWWWWaaaa
##QQQobbIIII
##mmnmmnnnn
##dddoVV
##ooVAPPP
##qqqFqq
##rrrrrryy
##RRRRRRRRn
##yyffllll
##QQQQQQQQLLLsssss
##uuuuggggll
##lQQLLLsssss
##FllTTTTTTT
##LssF
##yyyyyyyyfffff
##eeeeeehhhhhhn
##MyMM
##Fdddd
##zooor
##KSzz
##cxVVV
##BJx
##mmtn
##eehhhhn
##llTTTTTToo
##EEEELLLss
##ddxF
##ooLVV
##NNG
##KKKKvvv
##KKKKOOOOOOOOO
##SSSSSSSSaa
##QQQQorrr
##EEEEEEEERRR
##PPPorrrr
##QQQoobbbbb
##lllooVVV
##LLssssuuugF
##mmmmmmmmmmmmmee
##LLLsssuuuuujj
##ccccccccxxxV
##RRRoVV
##CCCCCCG
##AAAAAggPP
##UUUUUTTTT
##uuuuuuuwwwwppjj
##LLsssssuuuuuuugg
##fPPPrrr
##LLLLsswF
##mnFnnnnnnn
##QLLLssssuuuuugg
##BBBBBBBBBBU
##JJJJJJJJJJUU
##Szzzzdddd
##SSSzzzzzzzO
##FHHHHk
##Rqq
##VO
##bIkk
##bHk
##BBxxxV
##rrAAAAAA
##XXXXIIIII
##bbbHHHkk
##bbbkkkkQ
##ppppuujjj
##LLLsssgw
##zzzzzzzzdddd
##ooVVyyyyyyyyyyy
##KKKKKKKKKNNNNNN
##JJJxxxVV
##yyyyyyAfff
##UUUUUQoo
##MMMMMnnnnnnn
##oVpk
##EEEEEEEEEEVVVV
##kPPF
##oVVVVVyyyyyy
##dddddddddNN
##psssuuuuugggg
##LLLLsFs
##Ibkkk
##Lsssssugg
##bbbbkkP
##MMMMMnttttt
##SSSzzzzzdddd
##Saaaaaaaaaaaaaaaaaaaa
##eeeeeeeeeeeeenF
##FAfPPP
##pppppjww
##oLAAAAAAAAfff
##etttet
##SzzzzzzzOOO
##zzOOOvv
##STTTTTTTTTTT
##Fpps
##RooV
##bIk
##AggPP
##zzOOF
##rrHHHHHf
##UUTTT
##VVVppppjj
##yyyr
##KKKKKKKKOOOO
##QQorrrrff
##ooVVVPPPPP
##nnnnnnnnnF
##LLsssssuuuwwwww
##sssssuuuuuuuugg
##GGGGGGGGxxxVV
##EEEEEEEEEEEWWW
##QLLLssssuugg
##BBBBBBBBBBxxVVV
##WWWWWWWWWTTTTTT
##kkkSSSzzzz
##mmmmmmmmmmmmmmmmmmmmmmmmmmmmmmmmmmmmmmmmmmmmmmmnn
##SSSSSaaaG
##JJJJJJJJJJJUUU
##AAAAAAAAAfffff
##QQorVV
##KKKKKKKKKKKKEEEEEEEEE
##AAAAAAAAAAww
##pppppjFjjjj
##eeeeehhhhnnnnn
##llSSTT
##eeeeeeeeeeeehhhhhhnnn
nmmnn
##yyp
##nnfff
##lloF
##CCP
##aaaaO
##ccccxxxxxx
##bbbIkkk
##ppjMMMMMMMMMMMMM
##vvvvvTTTTTTT
##rrrrrrKKKKKNNNNNN
##VVVyyDDDDDiii
##EEEEEEEEEERR
##mmmmmmmmmmmmmmmmmmmmmmmmnnnnnnn
##ehhhhhn
##LLLLssuuuuujjj
##Lssssuugg
##LLLsgw
##zzzzzzzzzddd
##ggPQ
##mmmmmmmmnmmn
##mmmmmmmmmmmmmmmmmmmmmmmmmmmmmmmmmmmmmmmmmmmnnn
##mmmmmnnnCCCCC
##SSSSSaaaaaG
##HHHFHHkk
##mff
##Fooo
##FWWWWWWWW
##FSSSSaa
##FbbbIIII
##etttttttt
##dEE
##lQQQQQQQ
##lcccccccx
##lccccccccxxx
##qE
##AAAAFff
##BBBBXXXX
##KKKKaaaaaa
##QQQQJ
##rrrrAAA
##QoHHHH
##EEEEEEEERR
##VVVVpppjjj
##PPPPrrr
##KKKEEEEEEEEEEEE
##wwwwwyyyy
##NNNG
##LLsssggw
##ppjRR
##LLsssssuwww
##MMMMMMMMMFn
##GGGcxx
##rrrrrrKF
##pppjjjjjlll
##ddddddV
##ttttttttttteeeeeeeeeeeeeeeeeeeeeeeeeeeeeeee
##QQoVVVVpkk
##SSSSSSSzzzz
##pppppppppjjj
##rrrrrrrrKKKNNNNNN
##SSzzdddd
##FnnnCCCCC
##eeeeeeeeeeeeeeeeeeeeeehhh
##QQQFVV
##pppppppuj
##pjPll
##FDiiiii
##eeeeeeehhhhhhnnnnnn
##rOOO
##Bk
##yypjj
##EEEEQ
##DDiiiiiiii
##BBBBc
##JJJJXXXXXXXXX
##GGGGccxx
##MMMMMMMMmmmnn
##yyyppPP
##DDDDUUUUUUU
##EEEEEor
##vvvvvTTTTTTTT
##LLsssssuuuwwww
##JJJJJUxx
##MMMMMMMMMttt
##MMMMMMMMMMmmmnF
##bbbbbbbIIsssss
##kPPQoVV
##QQQLLLssssgwwww
##VVypppjjj
##SSSSaaaGGGGGGGG
##Qorrryyyyff
##ooVVVyDDDDD
##FlllTTTTT
##gggQQrrr
##llllTTTTTTTTTTTTTTTTTTT
##oobbbbbbbbIF
##eeetet
##lccccccccx
##mtttn
##dorr
##vQ
##nnF
##BBxVVVV
##rrAAAAAf
##IIk
##MMMMtttttttttttttttttttt
##hhnnnnnn
##EEEEEEEELLLLsss
##UUUUTTT
##SSSQQ
##BBBVV
##QQQobbbbbbbII
##LLsssggwww
##rrrrryyyffff
##EEEEEEFEEEEEE
##ppjjjMMMMMMMMMMMMM
##BBBBBUUUx
##pppjjll
##MMMMMMMMMMtttttt
##VVVyppp
##CCCCCCCTTTTTTT
##obbbbbbIIsssss
##yyDDDDj
##hhhhhhhnnnn
##yyyyfffWWWWWW
##QoVVVVppjj
##FpPP
##FaGGGGG
##FyyyM
##yyyyyyyyfffiiiiii
##eeeeeeeeeeeeeeeF
##azaa
##XXXXXIDD
##JBBBBBBB
##nnCCCCCCCCC
##zzorrrrr
##qqU
##ooHHF
##BBBBxxVVVV
##QQQQE
##LLLsssuwwww
##LLLsssuuujj
##pppjjjjQF
##ooVVppk
##ffffiii
##EEEEEo
##ppjjjQrrr
##HHHKSSS
##rrrrrrKNNNN
##MMMMMMMMMMMmmmnF
##pppjkQQQQ
##LLLLssgww
##QQoVVVVVVy
##QLLLsssswww
##pssssuuuuuuuuggg
##SSSSSaG
##mmmmmmmmmmmmmmmmmmmmmmmmmmmmmmmmmmmmmmmmmmmmmmnn
##SSSzzdddd
##uugFuggg
##SSzzzzzdddd
##MMMMMMMMMnMMM
##eeeeeeeeeeeeeeeeeeeeeeeehhhh
##QQoVVVVVI
tet
##Fpk
##Dp
##ssggP
##qqB
##yyyfPPPP
##obbbbkkkkQQQ
##LLLssssuuuuwwwwww
##LLLssssuuuuuuuuuuugg
##BBBxxxrr
##yyyyyypPPP
##zzzzza
##oooAAAAff
##oobbbkkkkQ
##orHHHHHHHHH
##RRRRRRRF
##ppppjjjFj
##oobkkkkQ
##mmmmmmmnmmmn
##mmmmnnCCCCCC
##oVVVyppjjjj
##QQQoVVpkk
##IIIssssuggg
##SSzzorr
##QQobbbbkkkk
##SSSSSaGGGGG
##SzzzOOOOOO
##QQorrAA
##oLLLsssssggg
##eeeeeehhhhhhhnnnnn
##QoobbbbI
##lllccccccxF
##zOOOvvvv
##kll
##lQQQF
##qU
##SSQor
##RRyyyy
##EEEEoV
##MMMMMMMMmmmm
##MMMMMMMMmmmmmmmmmn
##QoLLAAAAAAAA
##ttttttttttttttttttttttt
##ppppuuujjjj
##obbbbIIIIIy
##SSSSSSzzzzzzzzzz
##HHHHHHHIIIIII
##QFll
##ppppjjjjWW
##mmmmmmmmmmmmmmmmmmmmmmmmmnnnnnnn
##uuuggglllll
##KKKKKKKaa
##lllllllcccc
##zzzzzzzzzOOOOOOOOOO
##oLAAAAAAf
##KKKKKKKKKOF
##MMMMMntttttttttttttttt
##uuuuuuuuuggglll
##SSSaaaG
##AAAAAAAAAfPP
##KKKKKKKKKKKKNN
##oVVVyyyyyyyyyyy
##eeeehhhhhhn
##eeeeeeeeeehhhhhhnnnnn
##uuuuuuwwwwwpjj
##suuuuggg
##BxxV
##RRSR
##zzzzOOOOOvv
##WWWWaaaa
##MMMMMMMMFnn
##EEEWWWWWWWW
##oVVyDDD
##oVVyyDDDDD
##ooVVDDDDD
##xxxxxxxx
##MMMMMMMMMMMMmnF
##ppjjWWWWW
##obbbFb
[...]
